{
  "version": "1.0",
  "truncation": null,
  "padding": null,
  "added_tokens": [
    {
      "id": 0,
      "content": "[UNK]",
      "single_word": false,
      "lstrip": false,
      "rstrip": false,
      "normalized": false,
      "special": true
    },
    {
      "id": 1,
      "content": "[CLS]",
      "single_word": false,
      "lstrip": false,
      "rstrip": false,
      "normalized": false,
      "special": true
    },
    {
      "id": 2,
      "content": "[SEP]",
      "single_word": false,
      "lstrip": false,
      "rstrip": false,
      "normalized": false,
      "special": true
    },
    {
      "id": 3,
      "content": "[PAD]",
      "single_word": false,
      "lstrip": false,
      "rstrip": false,
      "normalized": false,
      "special": true
    },
    {
      "id": 4,
      "content": "[MASK]",
      "single_word": false,
      "lstrip": false,
      "rstrip": false,
      "normalized": false,
      "special": true
    }
  ],
  "normalizer": null,
  "pre_tokenizer": {
    "type": "Whitespace"
  },
  "post_processor": null,
  "decoder": null,
  "model": {
    "type": "BPE",
    "dropout": null,
    "unk_token": "[UNK]",
    "continuing_subword_prefix": null,
    "end_of_word_suffix": null,
    "fuse_unk": false,
    "byte_fallback": false,
    "vocab": {
      "[UNK]": 0,
      "[CLS]": 1,
      "[SEP]": 2,
      "[PAD]": 3,
      "[MASK]": 4,
      "&": 5,
      "'": 6,
      "*": 7,
      "-": 8,
      ".": 9,
      "0": 10,
      "1": 11,
      "2": 12,
      "3": 13,
      "4": 14,
      "5": 15,
      "8": 16,
      "9": 17,
      ":": 18,
      "=": 19,
      "@": 20,
      "A": 21,
      "B": 22,
      "C": 23,
      "D": 24,
      "E": 25,
      "F": 26,
      "G": 27,
      "H": 28,
      "I": 29,
      "J": 30,
      "K": 31,
      "L": 32,
      "M": 33,
      "N": 34,
      "O": 35,
      "P": 36,
      "Q": 37,
      "R": 38,
      "S": 39,
      "T": 40,
      "U": 41,
      "V": 42,
      "W": 43,
      "X": 44,
      "Y": 45,
      "Z": 46,
      "a": 47,
      "b": 48,
      "c": 49,
      "d": 50,
      "e": 51,
      "f": 52,
      "g": 53,
      "h": 54,
      "i": 55,
      "j": 56,
      "k": 57,
      "l": 58,
      "m": 59,
      "n": 60,
      "o": 61,
      "p": 62,
      "q": 63,
      "r": 64,
      "s": 65,
      "t": 66,
      "u": 67,
      "v": 68,
      "w": 69,
      "x": 70,
      "y": 71,
      "z": 72,
      "in": 73,
      "th": 74,
      "er": 75,
      "an": 76,
      "on": 77,
      "re": 78,
      "en": 79,
      "the": 80,
      "or": 81,
      "at": 82,
      "st": 83,
      "ar": 84,
      "ed": 85,
      "al": 86,
      "es": 87,
      "it": 88,
      "ing": 89,
      "ou": 90,
      "of": 91,
      "to": 92,
      "ll": 93,
      "ion": 94,
      "ent": 95,
      "is": 96,
      "as": 97,
      "and": 98,
      "om": 99,
      "ic": 100,
      "ve": 101,
      "se": 102,
      "he": 103,
      "et": 104,
      "id": 105,
      "le": 106,
      "ro": 107,
      "ig": 108,
      "un": 109,
      "ac": 110,
      "for": 111,
      "ad": 112,
      "ill": 113,
      "po": 114,
      "ly": 115,
      "ec": 116,
      "ay": 117,
      "fi": 118,
      "ch": 119,
      "do": 120,
      "ut": 121,
      "ers": 122,
      "int": 123,
      "ur": 124,
      "com": 125,
      "ld": 126,
      "igh": 127,
      "are": 128,
      "be": 129,
      "lo": 130,
      "ty": 131,
      "ation": 132,
      "per": 133,
      "ag": 134,
      "ir": 135,
      "ars": 136,
      "The": 137,
      "one": 138,
      "that": 139,
      "su": 140,
      "tw": 141,
      "ver": 142,
      "ex": 143,
      "im": 144,
      "con": 145,
      "pro": 146,
      "red": 147,
      "cent": 148,
      "wh": 149,
      "tr": 150,
      "am": 151,
      "und": 152,
      "doll": 153,
      "sa": 154,
      "ment": 155,
      "ce": 156,
      "sh": 157,
      "nin": 158,
      "point": 159,
      "dollars": 160,
      "por": 161,
      "ear": 162,
      "ab": 163,
      "said": 164,
      "res": 165,
      "pan": 166,
      "ate": 167,
      "de": 168,
      "si": 169,
      "illion": 170,
      "eigh": 171,
      "ts": 172,
      "our": 173,
      "mo": 174,
      "te": 175,
      "qu": 176,
      "ith": 177,
      "ter": 178,
      "li": 179,
      "ow": 180,
      "ere": 181,
      "fr": 182,
      "In": 183,
      "pr": 184,
      "ven": 185,
      "il": 186,
      "ak": 187,
      "two": 188,
      "with": 189,
      "ew": 190,
      "by": 191,
      "ies": 192,
      "man": 193,
      "Mr": 194,
      "undred": 195,
      "hundred": 196,
      "five": 197,
      "percent": 198,
      "ree": 199,
      "its": 200,
      "out": 201,
      "ha": 202,
      "pl": 203,
      "so": 204,
      "ge": 205,
      "str": 206,
      "from": 207,
      "us": 208,
      "ain": 209,
      "ninet": 210,
      "ess": 211,
      "ial": 212,
      "was": 213,
      "million": 214,
      "ap": 215,
      "ould": 216,
      "ot": 217,
      "oun": 218,
      "six": 219,
      "all": 220,
      "ct": 221,
      "ast": 222,
      "we": 223,
      "has": 224,
      "three": 225,
      "du": 226,
      "ark": 227,
      "ck": 228,
      "compan": 229,
      "ous": 230,
      "off": 231,
      "co": 232,
      "will": 233,
      "em": 234,
      "have": 235,
      "act": 236,
      "ther": 237,
      "iv": 238,
      "ated": 239,
      "ul": 240,
      "end": 241,
      "ity": 242,
      "four": 243,
      "art": 244,
      "enty": 245,
      "say": 246,
      "mark": 247,
      "een": 248,
      "est": 249,
      "ber": 250,
      "orpor": 251,
      "over": 252,
      "ive": 253,
      "el": 254,
      "year": 255,
      "if": 256,
      "thir": 257,
      "eight": 258,
      "op": 259,
      "ol": 260,
      "ect": 261,
      "ant": 262,
      "nineteen": 263,
      "au": 264,
      "market": 265,
      "ome": 266,
      "age": 267,
      "share": 268,
      "ard": 269,
      "seven": 270,
      "company": 271,
      "day": 272,
      "sp": 273,
      "ich": 274,
      "up": 275,
      "gr": 276,
      "um": 277,
      "gh": 278,
      "ice": 279,
      "ong": 280,
      "sto": 281,
      "bu": 282,
      "mer": 283,
      "fo": 284,
      "ist": 285,
      "ork": 286,
      "ors": 287,
      "Th": 288,
      "port": 289,
      "fif": 290,
      "od": 291,
      "would": 292,
      "ough": 293,
      "nine": 294,
      "ip": 295,
      "ust": 296,
      "ake": 297,
      "ack": 298,
      "pres": 299,
      "ans": 300,
      "trad": 301,
      "but": 302,
      "says": 303,
      "mon": 304,
      "inc": 305,
      "vest": 306,
      "they": 307,
      "eighty": 308,
      "ank": 309,
      "about": 310,
      "new": 311,
      "which": 312,
      "twenty": 313,
      "ie": 314,
      "fir": 315,
      "old": 316,
      "more": 317,
      "ne": 318,
      "were": 319,
      "this": 320,
      "ord": 321,
      "ions": 322,
      "stock": 323,
      "not": 324,
      "But": 325,
      "af": 326,
      "ke": 327,
      "other": 328,
      "anc": 329,
      "pos": 330,
      "aw": 331,
      "ine": 332,
      "ings": 333,
      "pe": 334,
      "Com": 335,
      "ations": 336,
      "ousand": 337,
      "thousand": 338,
      "ud": 339,
      "ind": 340,
      "invest": 341,
      "bl": 342,
      "cr": 343,
      "their": 344,
      "had": 345,
      "who": 346,
      "dis": 347,
      "vi": 348,
      "than": 349,
      "ance": 350,
      "ign": 351,
      "ach": 352,
      "ond": 353,
      "part": 354,
      "teen": 355,
      "no": 356,
      "low": 357,
      "some": 358,
      "billion": 359,
      "ally": 360,
      "exp": 361,
      "comp": 362,
      "been": 363,
      "thirty": 364,
      "ight": 365,
      "ren": 366,
      "his": 367,
      "corpor": 368,
      "ye": 369,
      "fifty": 370,
      "reas": 371,
      "chan": 372,
      "ire": 373,
      "pre": 374,
      "also": 375,
      "go": 376,
      "ident": 377,
      "me": 378,
      "able": 379,
      "ue": 380,
      "bo": 381,
      "ary": 382,
      "ble": 383,
      "produ": 384,
      "cur": 385,
      "yst": 386,
      "los": 387,
      "bec": 388,
      "cont": 389,
      "tim": 390,
      "An": 391,
      "ish": 392,
      "ek": 393,
      "fe": 394,
      "fin": 395,
      "ition": 396,
      "sal": 397,
      "ep": 398,
      "ia": 399,
      "iz": 400,
      "eral": 401,
      "ates": 402,
      "ten": 403,
      "ices": 404,
      "ities": 405,
      "ide": 406,
      "iness": 407,
      "New": 408,
      "ure": 409,
      "dec": 410,
      "usiness": 411,
      "Corpor": 412,
      "It": 413,
      "ok": 414,
      "arter": 415,
      "coun": 416,
      "Corporation": 417,
      "now": 418,
      "av": 419,
      "wn": 420,
      "ef": 421,
      "ound": 422,
      "ical": 423,
      "cents": 424,
      "work": 425,
      "air": 426,
      "month": 427,
      "corporated": 428,
      "sev": 429,
      "Incorporated": 430,
      "forty": 431,
      "ret": 432,
      "any": 433,
      "bank": 434,
      "oup": 435,
      "sur": 436,
      "quarter": 437,
      "ern": 438,
      "business": 439,
      "ile": 440,
      "ail": 441,
      "ninety": 442,
      "high": 443,
      "years": 444,
      "ann": 445,
      "ause": 446,
      "erv": 447,
      "bas": 448,
      "fore": 449,
      "cl": 450,
      "Ch": 451,
      "He": 452,
      "first": 453,
      "buy": 454,
      "could": 455,
      "get": 456,
      "trading": 457,
      "offic": 458,
      "shares": 459,
      "min": 460,
      "oper": 461,
      "most": 462,
      "br": 463,
      "St": 464,
      "own": 465,
      "add": 466,
      "row": 467,
      "ite": 468,
      "ments": 469,
      "issu": 470,
      "dustr": 471,
      "ational": 472,
      "overn": 473,
      "hold": 474,
      "ort": 475,
      "ma": 476,
      "last": 477,
      "ever": 478,
      "week": 479,
      "after": 480,
      "change": 481,
      "Ja": 482,
      "can": 483,
      "ash": 484,
      "prov": 485,
      "ating": 486,
      "Japan": 487,
      "ms": 488,
      "Wh": 489,
      "set": 490,
      "ele": 491,
      "mak": 492,
      "enc": 493,
      "urn": 494,
      "ame": 495,
      "down": 496,
      "because": 497,
      "ass": 498,
      "ence": 499,
      "under": 500,
      "lin": 501,
      "seventy": 502,
      "ction": 503,
      "ting": 504,
      "sub": 505,
      "ures": 506,
      "only": 507,
      "dr": 508,
      "govern": 509,
      "Fr": 510,
      "ta": 511,
      "pu": 512,
      "president": 513,
      "fund": 514,
      "Amer": 515,
      "York": 516,
      "like": 517,
      "offer": 518,
      "when": 519,
      "ade": 520,
      "fer": 521,
      "time": 522,
      "into": 523,
      "bond": 524,
      "Americ": 525,
      "may": 526,
      "many": 527,
      "ped": 528,
      "sales": 529,
      "erest": 530,
      "ra": 531,
      "interest": 532,
      "Compan": 533,
      "ext": 534,
      "ise": 535,
      "expect": 536,
      "We": 537,
      "increas": 538,
      "ital": 539,
      "onom": 540,
      "sell": 541,
      "back": 542,
      "such": 543,
      "sixty": 544,
      "Un": 545,
      "ci": 546,
      "pay": 547,
      "econom": 548,
      "arge": 549,
      "ecut": 550,
      "ace": 551,
      "pol": 552,
      "ick": 553,
      "prof": 554,
      "Company": 555,
      "companies": 556,
      "government": 557,
      "state": 558,
      "ase": 559,
      "them": 560,
      "ced": 561,
      "ted": 562,
      "fl": 563,
      "De": 564,
      "ese": 565,
      "alyst": 566,
      "earn": 567,
      "ild": 568,
      "gram": 569,
      "industr": 570,
      "execut": 571,
      "Br": 572,
      "ual": 573,
      "law": 574,
      "sid": 575,
      "ug": 576,
      "just": 577,
      "Re": 578,
      "thr": 579,
      "contr": 580,
      "incl": 581,
      "comm": 582,
      "att": 583,
      "report": 584,
      "tem": 585,
      "cord": 586,
      "Bo": 587,
      "uring": 588,
      "sul": 589,
      "ph": 590,
      "ople": 591,
      "way": 592,
      "uch": 593,
      "Ex": 594,
      "program": 595,
      "gen": 596,
      "ederal": 597,
      "come": 598,
      "official": 599,
      "form": 600,
      "istr": 601,
      "there": 602,
      "arr": 603,
      "financ": 604,
      "cess": 605,
      "led": 606,
      "ose": 607,
      "ative": 608,
      "cap": 609,
      "ago": 610,
      "ens": 611,
      "reg": 612,
      "tax": 613,
      "arg": 614,
      "vol": 615,
      "group": 616,
      "serv": 617,
      "prices": 618,
      "As": 619,
      "ific": 620,
      "dire": 621,
      "ob": 622,
      "pa": 623,
      "produc": 624,
      "ited": 625,
      "read": 626,
      "ink": 627,
      "put": 628,
      "vent": 629,
      "iss": 630,
      "wor": 631,
      "plan": 632,
      "long": 633,
      "oh": 634,
      "pt": 635,
      "people": 636,
      "call": 637,
      "tal": 638,
      "stru": 639,
      "cost": 640,
      "spec": 641,
      "jor": 642,
      "recent": 643,
      "bet": 644,
      "curren": 645,
      "ton": 646,
      "analyst": 647,
      "fact": 648,
      "ero": 649,
      "ater": 650,
      "Con": 651,
      "ision": 652,
      "ian": 653,
      "hel": 654,
      "ester": 655,
      "clos": 656,
      "lier": 657,
      "ouse": 658,
      "So": 659,
      "how": 660,
      "publ": 661,
      "line": 662,
      "price": 663,
      "ility": 664,
      "big": 665,
      "ged": 666,
      "net": 667,
      "again": 668,
      "contin": 669,
      "ress": 670,
      "esterday": 671,
      "much": 672,
      "ctor": 673,
      "med": 674,
      "pp": 675,
      "take": 676,
      "major": 677,
      "ory": 678,
      "less": 679,
      "deb": 680,
      "main": 681,
      "grow": 682,
      "even": 683,
      "large": 684,
      "rel": 685,
      "arch": 686,
      "oney": 687,
      "And": 688,
      "son": 689,
      "cond": 690,
      "ief": 691,
      "stand": 692,
      "investors": 693,
      "ict": 694,
      "very": 695,
      "third": 696,
      "what": 697,
      "did": 698,
      "gain": 699,
      "rose": 700,
      "through": 701,
      "gy": 702,
      "includ": 703,
      "you": 704,
      "Mo": 705,
      "cut": 706,
      "ince": 707,
      "though": 708,
      "ech": 709,
      "pur": 710,
      "make": 711,
      "used": 712,
      "des": 713,
      "while": 714,
      "gan": 715,
      "trans": 716,
      "American": 717,
      "lead": 718,
      "cal": 719,
      "ives": 720,
      "loss": 721,
      "earnings": 722,
      "bro": 723,
      "next": 724,
      "sl": 725,
      "par": 726,
      "emp": 727,
      "wo": 728,
      "spo": 729,
      "yesterday": 730,
      "earlier": 731,
      "ents": 732,
      "try": 733,
      "rate": 734,
      "sel": 735,
      "acqu": 736,
      "ystem": 737,
      "comput": 738,
      "ury": 739,
      "based": 740,
      "bonds": 741,
      "ics": 742,
      "che": 743,
      "tain": 744,
      "cour": 745,
      "hal": 746,
      "val": 747,
      "thing": 748,
      "well": 749,
      "Al": 750,
      "def": 751,
      "industry": 752,
      "gu": 753,
      "tle": 754,
      "vel": 755,
      "Ro": 756,
      "ily": 757,
      "velo": 758,
      "money": 759,
      "div": 760,
      "early": 761,
      "zero": 762,
      "expected": 763,
      "stit": 764,
      "her": 765,
      "made": 766,
      "clo": 767,
      "she": 768,
      "That": 769,
      "sm": 770,
      "good": 771,
      "resul": 772,
      "profit": 773,
      "Co": 774,
      "Tr": 775,
      "ner": 776,
      "chief": 777,
      "executive": 778,
      "ca": 779,
      "investment": 780,
      "stocks": 781,
      "ste": 782,
      "Japanese": 783,
      "fifteen": 784,
      "closed": 785,
      "kes": 786,
      "als": 787,
      "conc": 788,
      "ris": 789,
      "months": 790,
      "secur": 791,
      "current": 792,
      "West": 793,
      "stitut": 794,
      "bid": 795,
      "financial": 796,
      "issue": 797,
      "der": 798,
      "does": 799,
      "Sep": 800,
      "ield": 801,
      "firm": 802,
      "leg": 803,
      "unit": 804,
      "proble": 805,
      "real": 806,
      "cle": 807,
      "ject": 808,
      "ared": 809,
      "For": 810,
      "land": 811,
      "half": 812,
      "reat": 813,
      "officials": 814,
      "equ": 815,
      "They": 816,
      "sign": 817,
      "ists": 818,
      "those": 819,
      "ior": 820,
      "sen": 821,
      "head": 822,
      "concern": 823,
      "fut": 824,
      "Cal": 825,
      "federal": 826,
      "late": 827,
      "At": 828,
      "ues": 829,
      "rop": 830,
      "ects": 831,
      "index": 832,
      "Oc": 833,
      "ger": 834,
      "ush": 835,
      "ended": 836,
      "still": 837,
      "show": 838,
      "develo": 839,
      "ency": 840,
      "Sto": 841,
      "far": 842,
      "wr": 843,
      "requ": 844,
      "know": 845,
      "les": 846,
      "propos": 847,
      "verage": 848,
      "build": 849,
      "contro": 850,
      "before": 851,
      "manag": 852,
      "cer": 853,
      "capital": 854,
      "public": 855,
      "rates": 856,
      "ending": 857,
      "adv": 858,
      "lower": 859,
      "ho": 860,
      "ult": 861,
      "Bank": 862,
      "cred": 863,
      "pers": 864,
      "io": 865,
      "national": 866,
      "tober": 867,
      "ional": 868,
      "against": 869,
      "October": 870,
      "Gr": 871,
      "venue": 872,
      "spokes": 873,
      "use": 874,
      "chair": 875,
      "compl": 876,
      "where": 877,
      "tember": 878,
      "products": 879,
      "ves": 880,
      "second": 881,
      "view": 882,
      "emplo": 883,
      "September": 884,
      "should": 885,
      "ports": 886,
      "ges": 887,
      "No": 888,
      "fect": 889,
      "ins": 890,
      "debt": 891,
      "mem": 892,
      "surance": 893,
      "ants": 894,
      "Comm": 895,
      "dollar": 896,
      "since": 897,
      "system": 898,
      "ved": 899,
      "app": 900,
      "close": 901,
      "funds": 902,
      "ween": 903,
      "fell": 904,
      "action": 905,
      "chairman": 906,
      "Ar": 907,
      "yield": 908,
      "estim": 909,
      "higher": 910,
      "Brit": 911,
      "cho": 912,
      "soci": 913,
      "these": 914,
      "need": 915,
      "bill": 916,
      "ious": 917,
      "dif": 918,
      "ull": 919,
      "uro": 920,
      "alth": 921,
      "deal": 922,
      "small": 923,
      "between": 924,
      "amp": 925,
      "sider": 926,
      "securities": 927,
      "resp": 928,
      "Exchange": 929,
      "aim": 930,
      "ied": 931,
      "num": 932,
      "ling": 933,
      "ular": 934,
      "let": 935,
      "ning": 936,
      "being": 937,
      "sive": 938,
      "analysts": 939,
      "cre": 940,
      "got": 941,
      "income": 942,
      "fic": 943,
      "wer": 944,
      "vert": 945,
      "Cali": 946,
      "ib": 947,
      "forn": 948,
      "look": 949,
      "This": 950,
      "Californ": 951,
      "Euro": 952,
      "Sec": 953,
      "purch": 954,
      "If": 955,
      "remain": 956,
      "reed": 957,
      "press": 958,
      "reet": 959,
      "Be": 960,
      "ibut": 961,
      "agement": 962,
      "announ": 963,
      "California": 964,
      "past": 965,
      "present": 966,
      "few": 967,
      "lit": 968,
      "ask": 969,
      "agree": 970,
      "ili": 971,
      "Inter": 972,
      "sum": 973,
      "struct": 974,
      "Stock": 975,
      "imp": 976,
      "then": 977,
      "think": 978,
      "redu": 979,
      "hand": 980,
      "sup": 981,
      "ized": 982,
      "ths": 983,
      "sted": 984,
      "twel": 985,
      "operations": 986,
      "ines": 987,
      "cording": 988,
      "turn": 989,
      "sever": 990,
      "peri": 991,
      "cy": 992,
      "foreign": 993,
      "growth": 994,
      "computer": 995,
      "jo": 996,
      "ving": 997,
      "rece": 998,
      "help": 999,
      "level": 1000,
      "declin": 1001,
      "polit": 1002,
      "reported": 1003,
      "ired": 1004,
      "tak": 1005,
      "ising": 1006,
      "contract": 1007,
      "twelve": 1008,
      "want": 1009,
      "llow": 1010,
      "search": 1011,
      "lie": 1012,
      "consider": 1013,
      "partment": 1014,
      "mat": 1015,
      "House": 1016,
      "plans": 1017,
      "credit": 1018,
      "drop": 1019,
      "ry": 1020,
      "prom": 1021,
      "vice": 1022,
      "unt": 1023,
      "ched": 1024,
      "move": 1025,
      "markets": 1026,
      "holders": 1027,
      "Le": 1028,
      "board": 1029,
      "ready": 1030,
      "him": 1031,
      "ceed": 1032,
      "cial": 1033,
      "fur": 1034,
      "Sen": 1035,
      "vers": 1036,
      "Europe": 1037,
      "common": 1038,
      "return": 1039,
      "play": 1040,
      "unk": 1041,
      "quake": 1042,
      "nam": 1043,
      "vious": 1044,
      "both": 1045,
      "including": 1046,
      "Pr": 1047,
      "Sou": 1048,
      "another": 1049,
      "ators": 1050,
      "accoun": 1051,
      "days": 1052,
      "eleven": 1053,
      "dam": 1054,
      "ward": 1055,
      "inter": 1056,
      "ought": 1057,
      "compet": 1058,
      "see": 1059,
      "ship": 1060,
      "economic": 1061,
      "sets": 1062,
      "test": 1063,
      "sale": 1064,
      "addition": 1065,
      "gin": 1066,
      "meet": 1067,
      "cash": 1068,
      "thers": 1069,
      "ref": 1070,
      "suc": 1071,
      "coll": 1072,
      "Some": 1073,
      "iday": 1074,
      "bers": 1075,
      "ator": 1076,
      "open": 1077,
      "sold": 1078,
      "banks": 1079,
      "sy": 1080,
      "Bro": 1081,
      "ohn": 1082,
      "called": 1083,
      "ministr": 1084,
      "issues": 1085,
      "spokesman": 1086,
      "Man": 1087,
      "On": 1088,
      "follow": 1089,
      "develop": 1090,
      "Nor": 1091,
      "San": 1092,
      "stud": 1093,
      "gest": 1094,
      "az": 1095,
      "cus": 1096,
      "run": 1097,
      "insurance": 1098,
      "sure": 1099,
      "world": 1100,
      "term": 1101,
      "during": 1102,
      "tech": 1103,
      "ised": 1104,
      "ately": 1105,
      "ude": 1106,
      "ones": 1107,
      "thirteen": 1108,
      "sc": 1109,
      "research": 1110,
      "organ": 1111,
      "Bush": 1112,
      "might": 1113,
      "self": 1114,
      "increase": 1115,
      "Air": 1116,
      "ben": 1117,
      "ctr": 1118,
      "fam": 1119,
      "ued": 1120,
      "aren": 1121,
      "polic": 1122,
      "court": 1123,
      "John": 1124,
      "each": 1125,
      "reasury": 1126,
      "director": 1127,
      "costs": 1128,
      "full": 1129,
      "oil": 1130,
      "too": 1131,
      "total": 1132,
      "There": 1133,
      "Street": 1134,
      "Ger": 1135,
      "sible": 1136,
      "case": 1137,
      "every": 1138,
      "several": 1139,
      "En": 1140,
      "lim": 1141,
      "power": 1142,
      "fac": 1143,
      "start": 1144,
      "going": 1145,
      "Mon": 1146,
      "added": 1147,
      "ces": 1148,
      "os": 1149,
      "exchange": 1150,
      "number": 1151,
      "ks": 1152,
      "resident": 1153,
      "brok": 1154,
      "ime": 1155,
      "strong": 1156,
      "ufact": 1157,
      "record": 1158,
      "ential": 1159,
      "tee": 1160,
      "management": 1161,
      "ney": 1162,
      "hip": 1163,
      "onal": 1164,
      "unic": 1165,
      "belie": 1166,
      "Friday": 1167,
      "Treasury": 1168,
      "la": 1169,
      "ody": 1170,
      "support": 1171,
      "Cong": 1172,
      "mand": 1173,
      "least": 1174,
      "partic": 1175,
      "average": 1176,
      "ier": 1177,
      "Mer": 1178,
      "ually": 1179,
      "yen": 1180,
      "ina": 1181,
      "viet": 1182,
      "direct": 1183,
      "clear": 1184,
      "Sal": 1185,
      "trade": 1186,
      "claim": 1187,
      "commit": 1188,
      "Congress": 1189,
      "East": 1190,
      "Gen": 1191,
      "hard": 1192,
      "ran": 1193,
      "eng": 1194,
      "likely": 1195,
      "special": 1196,
      "ss": 1197,
      "already": 1198,
      "top": 1199,
      "lot": 1200,
      "ages": 1201,
      "Soviet": 1202,
      "ful": 1203,
      "infl": 1204,
      "ium": 1205,
      "right": 1206,
      "auto": 1207,
      "Pet": 1208,
      "det": 1209,
      "ights": 1210,
      "certain": 1211,
      "control": 1212,
      "fall": 1213,
      "assets": 1214,
      "Secur": 1215,
      "approv": 1216,
      "Mc": 1217,
      "To": 1218,
      "bit": 1219,
      "according": 1220,
      "effor": 1221,
      "officer": 1222,
      "among": 1223,
      "bert": 1224,
      "amoun": 1225,
      "mocr": 1226,
      "Can": 1227,
      "my": 1228,
      "aged": 1229,
      "British": 1230,
      "One": 1231,
      "She": 1232,
      "ense": 1233,
      "earth": 1234,
      "tele": 1235,
      "National": 1236,
      "ser": 1237,
      "sol": 1238,
      "ustom": 1239,
      "maker": 1240,
      "little": 1241,
      "seem": 1242,
      "wom": 1243,
      "whe": 1244,
      "futures": 1245,
      "same": 1246,
      "stake": 1247,
      "ley": 1248,
      "import": 1249,
      "place": 1250,
      "due": 1251,
      "economy": 1252,
      "Nove": 1253,
      "agreed": 1254,
      "short": 1255,
      "Se": 1256,
      "car": 1257,
      "mber": 1258,
      "uck": 1259,
      "revenue": 1260,
      "del": 1261,
      "ission": 1262,
      "nolo": 1263,
      "previous": 1264,
      "agreement": 1265,
      "Ste": 1266,
      "ons": 1267,
      "South": 1268,
      "vo": 1269,
      "sixteen": 1270,
      "order": 1271,
      "November": 1272,
      "cast": 1273,
      "found": 1274,
      "home": 1275,
      "priv": 1276,
      "plant": 1277,
      "period": 1278,
      "ata": 1279,
      "ably": 1280,
      "gener": 1281,
      "bre": 1282,
      "custom": 1283,
      "carr": 1284,
      "allow": 1285,
      "ume": 1286,
      "operating": 1287,
      "employe": 1288,
      "enn": 1289,
      "ases": 1290,
      "demand": 1291,
      "quest": 1292,
      "production": 1293,
      "problems": 1294,
      "Wall": 1295,
      "pi": 1296,
      "strate": 1297,
      "appro": 1298,
      "Res": 1299,
      "junk": 1300,
      "value": 1301,
      "until": 1302,
      "itions": 1303,
      "isco": 1304,
      "agency": 1305,
      "ends": 1306,
      "den": 1307,
      "abor": 1308,
      "pric": 1309,
      "traders": 1310,
      "position": 1311,
      "regul": 1312,
      "hop": 1313,
      "continue": 1314,
      "wide": 1315,
      "invol": 1316,
      "country": 1317,
      "sist": 1318,
      "quart": 1319,
      "appe": 1320,
      "cover": 1321,
      "indic": 1322,
      "ability": 1323,
      "divid": 1324,
      "writ": 1325,
      "Federal": 1326,
      "ix": 1327,
      "jud": 1328,
      "drug": 1329,
      "International": 1330,
      "quarters": 1331,
      "Aug": 1332,
      "bor": 1333,
      "ically": 1334,
      "August": 1335,
      "care": 1336,
      "manufact": 1337,
      "office": 1338,
      "aff": 1339,
      "changes": 1340,
      "whether": 1341,
      "Par": 1342,
      "ington": 1343,
      "seek": 1344,
      "held": 1345,
      "lect": 1346,
      "firms": 1347,
      "results": 1348,
      "ible": 1349,
      "non": 1350,
      "rest": 1351,
      "around": 1352,
      "ways": 1353,
      "cor": 1354,
      "ub": 1355,
      "effect": 1356,
      "differ": 1357,
      "Fir": 1358,
      "former": 1359,
      "ization": 1360,
      "largest": 1361,
      "standing": 1362,
      "here": 1363,
      "today": 1364,
      "cept": 1365,
      "sevent": 1366,
      "offering": 1367,
      "services": 1368,
      "Tex": 1369,
      "ave": 1370,
      "mach": 1371,
      "buying": 1372,
      "complet": 1373,
      "distr": 1374,
      "slow": 1375,
      "comment": 1376,
      "ames": 1377,
      "Fin": 1378,
      "reach": 1379,
      "corporate": 1380,
      "Franc": 1381,
      "however": 1382,
      "acquis": 1383,
      "policy": 1384,
      "Ge": 1385,
      "find": 1386,
      "ness": 1387,
      "vir": 1388,
      "Car": 1389,
      "Col": 1390,
      "ners": 1391,
      "rul": 1392,
      "ston": 1393,
      "ived": 1394,
      "annual": 1395,
      "earthquake": 1396,
      "Pro": 1397,
      "war": 1398,
      "mag": 1399,
      "ster": 1400,
      "proper": 1401,
      "making": 1402,
      "general": 1403,
      "declined": 1404,
      "All": 1405,
      "Dec": 1406,
      "house": 1407,
      "health": 1408,
      "dep": 1409,
      "product": 1410,
      "gains": 1411,
      "First": 1412,
      "must": 1413,
      "ural": 1414,
      "recently": 1415,
      "ministration": 1416,
      "fig": 1417,
      "suit": 1418,
      "ging": 1419,
      "met": 1420,
      "ore": 1421,
      "enter": 1422,
      "news": 1423,
      "political": 1424,
      "Ma": 1425,
      "ism": 1426,
      "building": 1427,
      "Am": 1428,
      "Ph": 1429,
      "President": 1430,
      "sing": 1431,
      "thor": 1432,
      "charg": 1433,
      "without": 1434,
      "possible": 1435,
      "further": 1436,
      "mocrat": 1437,
      "Canad": 1438,
      "dom": 1439,
      "ell": 1440,
      "institut": 1441,
      "tra": 1442,
      "aud": 1443,
      "orders": 1444,
      "selling": 1445,
      "nation": 1446,
      "igation": 1447,
      "process": 1448,
      "ivers": 1449,
      "members": 1450,
      "Francisco": 1451,
      "fail": 1452,
      "ale": 1453,
      "eighths": 1454,
      "ially": 1455,
      "keep": 1456,
      "lines": 1457,
      "subsid": 1458,
      "Board": 1459,
      "benef": 1460,
      "Mar": 1461,
      "rup": 1462,
      "ican": 1463,
      "risk": 1464,
      "Jun": 1465,
      "gl": 1466,
      "usu": 1467,
      "attr": 1468,
      "Securities": 1469,
      "ys": 1470,
      "Industr": 1471,
      "become": 1472,
      "When": 1473,
      "Lond": 1474,
      "hu": 1475,
      "activ": 1476,
      "estate": 1477,
      "purchase": 1478,
      "announced": 1479,
      "London": 1480,
      "atch": 1481,
      "advert": 1482,
      "imin": 1483,
      "losses": 1484,
      "force": 1485,
      "sug": 1486,
      "opt": 1487,
      "posite": 1488,
      "Department": 1489,
      "arent": 1490,
      "Do": 1491,
      "War": 1492,
      "give": 1493,
      "loans": 1494,
      "agu": 1495,
      "notes": 1496,
      "Ms": 1497,
      "pass": 1498,
      "begin": 1499,
      "fourteen": 1500,
      "businesses": 1501,
      "increased": 1502,
      "problem": 1503,
      "nology": 1504,
      "Cap": 1505,
      "took": 1506,
      "fied": 1507,
      "ize": 1508,
      "makers": 1509,
      "Group": 1510,
      "bal": 1511,
      "life": 1512,
      "Chic": 1513,
      "How": 1514,
      "mical": 1515,
      "pound": 1516,
      "ross": 1517,
      "takeover": 1518,
      "da": 1519,
      "sw": 1520,
      "mercial": 1521,
      "Associ": 1522,
      "Chicago": 1523,
      "Min": 1524,
      "Mark": 1525,
      "points": 1526,
      "Invest": 1527,
      "ember": 1528,
      "meas": 1529,
      "stead": 1530,
      "ev": 1531,
      "eld": 1532,
      "gas": 1533,
      "often": 1534,
      "intern": 1535,
      "plann": 1536,
      "expects": 1537,
      "ortg": 1538,
      "ath": 1539,
      "cli": 1540,
      "eas": 1541,
      "mor": 1542,
      "nor": 1543,
      "oc": 1544,
      "vis": 1545,
      "post": 1546,
      "result": 1547,
      "senior": 1548,
      "Gu": 1549,
      "inform": 1550,
      "workers": 1551,
      "retail": 1552,
      "dou": 1553,
      "hour": 1554,
      "win": 1555,
      "ided": 1556,
      "design": 1557,
      "respon": 1558,
      "employees": 1559,
      "ER": 1560,
      "bur": 1561,
      "iam": 1562,
      "ubl": 1563,
      "lock": 1564,
      "supp": 1565,
      "mod": 1566,
      "fourth": 1567,
      "ample": 1568,
      "Senate": 1569,
      "rupt": 1570,
      "OR": 1571,
      "sent": 1572,
      "acts": 1573,
      "electr": 1574,
      "paid": 1575,
      "Ad": 1576,
      "gi": 1577,
      "mil": 1578,
      "esp": 1579,
      "isl": 1580,
      "Wash": 1581,
      "free": 1582,
      "ik": 1583,
      "pot": 1584,
      "eighteen": 1585,
      "General": 1586,
      "Geor": 1587,
      "With": 1588,
      "city": 1589,
      "gre": 1590,
      "men": 1591,
      "prove": 1592,
      "lawy": 1593,
      "Big": 1594,
      "Sh": 1595,
      "pat": 1596,
      "seas": 1597,
      "ets": 1598,
      "ither": 1599,
      "using": 1600,
      "chool": 1601,
      "named": 1602,
      "Texas": 1603,
      "cu": 1604,
      "pack": 1605,
      "boo": 1606,
      "ished": 1607,
      "Democrat": 1608,
      "December": 1609,
      "Dow": 1610,
      "weak": 1611,
      "goti": 1612,
      "fis": 1613,
      "ties": 1614,
      "wa": 1615,
      "ides": 1616,
      "compared": 1617,
      "seventeen": 1618,
      "Jones": 1619,
      "ft": 1620,
      "nat": 1621,
      "tar": 1622,
      "ained": 1623,
      "phone": 1624,
      "proposal": 1625,
      "Au": 1626,
      "job": 1627,
      "nearly": 1628,
      "food": 1629,
      "latest": 1630,
      "success": 1631,
      "priced": 1632,
      "executives": 1633,
      "meeting": 1634,
      "Or": 1635,
      "Pac": 1636,
      "coup": 1637,
      "ff": 1638,
      "pred": 1639,
      "example": 1640,
      "weeks": 1641,
      "While": 1642,
      "service": 1643,
      "Washington": 1644,
      "Ford": 1645,
      "Tues": 1646,
      "deli": 1647,
      "America": 1648,
      "better": 1649,
      "legisl": 1650,
      "Pacific": 1651,
      "IN": 1652,
      "arm": 1653,
      "iting": 1654,
      "lls": 1655,
      "ille": 1656,
      "area": 1657,
      "decline": 1658,
      "volume": 1659,
      "paper": 1660,
      "Robert": 1661,
      "Monday": 1662,
      "amount": 1663,
      "Tuesday": 1664,
      "Fed": 1665,
      "later": 1666,
      "ying": 1667,
      "arp": 1668,
      "filed": 1669,
      "consu": 1670,
      "ivid": 1671,
      "others": 1672,
      "sk": 1673,
      "tect": 1674,
      "itive": 1675,
      "commercial": 1676,
      "Cha": 1677,
      "May": 1678,
      "yn": 1679,
      "ze": 1680,
      "field": 1681,
      "changed": 1682,
      "estimated": 1683,
      "unications": 1684,
      "inflation": 1685,
      "outs": 1686,
      "negoti": 1687,
      "makes": 1688,
      "fiscal": 1689,
      "AT": 1690,
      "rights": 1691,
      "orney": 1692,
      "ety": 1693,
      "composite": 1694,
      "col": 1695,
      "avy": 1696,
      "offered": 1697,
      "Lim": 1698,
      "yo": 1699,
      "your": 1700,
      "restruct": 1701,
      "away": 1702,
      "decision": 1703,
      "related": 1704,
      "damage": 1705,
      "woman": 1706,
      "Tok": 1707,
      "ified": 1708,
      "almost": 1709,
      "role": 1710,
      "ift": 1711,
      "ony": 1712,
      "author": 1713,
      "ieth": 1714,
      "came": 1715,
      "mid": 1716,
      "rise": 1717,
      "itor": 1718,
      "room": 1719,
      "charge": 1720,
      "individ": 1721,
      "holding": 1722,
      "currently": 1723,
      "stop": 1724,
      "struction": 1725,
      "future": 1726,
      "customers": 1727,
      "uary": 1728,
      "vision": 1729,
      "yet": 1730,
      "enough": 1731,
      "child": 1732,
      "ution": 1733,
      "mot": 1734,
      "never": 1735,
      "particular": 1736,
      "Limited": 1737,
      "tel": 1738,
      "bud": 1739,
      "depend": 1740,
      "individual": 1741,
      "sim": 1742,
      "represent": 1743,
      "administration": 1744,
      "crit": 1745,
      "signific": 1746,
      "proposed": 1747,
      "began": 1748,
      "happ": 1749,
      "foli": 1750,
      "trying": 1751,
      "consul": 1752,
      "list": 1753,
      "outstanding": 1754,
      "magaz": 1755,
      "Law": 1756,
      "Rich": 1757,
      "ike": 1758,
      "mit": 1759,
      "ping": 1760,
      "protect": 1761,
      "spending": 1762,
      "transaction": 1763,
      "received": 1764,
      "acquisition": 1765,
      "consumer": 1766,
      "Mic": 1767,
      "ering": 1768,
      "step": 1769,
      "unity": 1770,
      "project": 1771,
      "ilities": 1772,
      "China": 1773,
      "division": 1774,
      "joint": 1775,
      "important": 1776,
      "flo": 1777,
      "face": 1778,
      "sit": 1779,
      "ang": 1780,
      "once": 1781,
      "best": 1782,
      "loan": 1783,
      "prob": 1784,
      "ulation": 1785,
      "known": 1786,
      "claims": 1787,
      "private": 1788,
      "Dav": 1789,
      "Fo": 1790,
      "hur": 1791,
      "vot": 1792,
      "Capital": 1793,
      "anch": 1794,
      "lled": 1795,
      "ased": 1796,
      "break": 1797,
      "Ju": 1798,
      "init": 1799,
      "local": 1800,
      "pract": 1801,
      "times": 1802,
      "owned": 1803,
      "What": 1804,
      "include": 1805,
      "significant": 1806,
      "ru": 1807,
      "inst": 1808,
      "ened": 1809,
      "lies": 1810,
      "ival": 1811,
      "ordin": 1812,
      "ibuted": 1813,
      "broker": 1814,
      "potential": 1815,
      "Ac": 1816,
      "sharp": 1817,
      "key": 1818,
      "book": 1819,
      "broad": 1820,
      "computers": 1821,
      "development": 1822,
      "question": 1823,
      "subsidi": 1824,
      "ortgage": 1825,
      "Ho": 1826,
      "Will": 1827,
      "sof": 1828,
      "log": 1829,
      "Mrs": 1830,
      "aster": 1831,
      "ips": 1832,
      "managers": 1833,
      "account": 1834,
      "Now": 1835,
      "nal": 1836,
      "school": 1837,
      "exper": 1838,
      "ilar": 1839,
      "actions": 1840,
      "reason": 1841,
      "avail": 1842,
      "continued": 1843,
      "European": 1844,
      "By": 1845,
      "Cour": 1846,
      "event": 1847,
      "ories": 1848,
      "ials": 1849,
      "marketing": 1850,
      "ipment": 1851,
      "investor": 1852,
      "leaders": 1853,
      "Pol": 1854,
      "sched": 1855,
      "idence": 1856,
      "portfoli": 1857,
      "iversity": 1858,
      "information": 1859,
      "ino": 1860,
      "appoint": 1861,
      "attorney": 1862,
      "equity": 1863,
      "Tokyo": 1864,
      "budget": 1865,
      "told": 1866,
      "imes": 1867,
      "abo": 1868,
      "counter": 1869,
      "base": 1870,
      "viron": 1871,
      "James": 1872,
      "Jagu": 1873,
      "Last": 1874,
      "ai": 1875,
      "things": 1876,
      "adjust": 1877,
      "team": 1878,
      "soon": 1879,
      "shareholders": 1880,
      "spe": 1881,
      "programs": 1882,
      "Sp": 1883,
      "ps": 1884,
      "scr": 1885,
      "arily": 1886,
      "secut": 1887,
      "conf": 1888,
      "quick": 1889,
      "black": 1890,
      "maint": 1891,
      "personal": 1892,
      "family": 1893,
      "German": 1894,
      "Jaguar": 1895,
      "Af": 1896,
      "Mot": 1897,
      "lex": 1898,
      "abort": 1899,
      "qual": 1900,
      "ctions": 1901,
      "provide": 1902,
      "Union": 1903,
      "dropped": 1904,
      "Me": 1905,
      "ball": 1906,
      "hit": 1907,
      "ient": 1908,
      "simp": 1909,
      "trou": 1910,
      "active": 1911,
      "discus": 1912,
      "financing": 1913,
      "manager": 1914,
      "diffic": 1915,
      "taken": 1916,
      "Sales": 1917,
      "committee": 1918,
      "charges": 1919,
      "Fe": 1920,
      "Serv": 1921,
      "within": 1922,
      "brand": 1923,
      "raise": 1924,
      "slight": 1925,
      "additional": 1926,
      "reflect": 1927,
      "vironment": 1928,
      "bar": 1929,
      "gress": 1930,
      "ison": 1931,
      "intro": 1932,
      "loc": 1933,
      "mean": 1934,
      "contracts": 1935,
      "wood": 1936,
      "believe": 1937,
      "You": 1938,
      "bad": 1939,
      "tieth": 1940,
      "units": 1941,
      "expl": 1942,
      "via": 1943,
      "Ange": 1944,
      "getting": 1945,
      "owners": 1946,
      "settle": 1947,
      "More": 1948,
      "single": 1949,
      "introdu": 1950,
      "Gre": 1951,
      "cir": 1952,
      "either": 1953,
      "hist": 1954,
      "restr": 1955,
      "loy": 1956,
      "cop": 1957,
      "ances": 1958,
      "network": 1959,
      "Wor": 1960,
      "hous": 1961,
      "mis": 1962,
      "edu": 1963,
      "estic": 1964,
      "bled": 1965,
      "legal": 1966,
      "bitr": 1967,
      "dividend": 1968,
      "Warner": 1969,
      "available": 1970,
      "cam": 1971,
      "near": 1972,
      "name": 1973,
      "itself": 1974,
      "icit": 1975,
      "icle": 1976,
      "left": 1977,
      "union": 1978,
      "construction": 1979,
      "ains": 1980,
      "antic": 1981,
      "spect": 1982,
      "ister": 1983,
      "These": 1984,
      "White": 1985,
      "Under": 1986,
      "chemical": 1987,
      "fav": 1988,
      "sci": 1989,
      "stant": 1990,
      "improve": 1991,
      "Ind": 1992,
      "iving": 1993,
      "viol": 1994,
      "increasing": 1995,
      "backed": 1996,
      "statement": 1997,
      "standard": 1998,
      "fully": 1999,
      "However": 2000,
      "data": 2001,
      "nect": 2002,
      "ensive": 2003,
      "urs": 2004,
      "thirtieth": 2005,
      "calls": 2006,
      "require": 2007,
      "David": 2008,
      "above": 2009,
      "After": 2010,
      "City": 2011,
      "Pe": 2012,
      "great": 2013,
      "lack": 2014,
      "uation": 2015,
      "road": 2016,
      "sib": 2017,
      "ources": 2018,
      "ournal": 2019,
      "noted": 2020,
      "Revenue": 2021,
      "effort": 2022,
      "June": 2023,
      "July": 2024,
      "March": 2025,
      "aid": 2026,
      "aper": 2027,
      "bed": 2028,
      "kind": 2029,
      "light": 2030,
      "ery": 2031,
      "erve": 2032,
      "arbitr": 2033,
      "acy": 2034,
      "ays": 2035,
      "coming": 2036,
      "resign": 2037,
      "banking": 2038,
      "medi": 2039,
      "employ": 2040,
      "advertising": 2041,
      "restructuring": 2042,
      "Many": 2043,
      "fre": 2044,
      "doing": 2045,
      "aining": 2046,
      "aph": 2047,
      "emer": 2048,
      "growing": 2049,
      "goods": 2050,
      "technology": 2051,
      "engine": 2052,
      "deter": 2053,
      "Association": 2054,
      "international": 2055,
      "probably": 2056,
      "Hu": 2057,
      "Los": 2058,
      "cases": 2059,
      "ral": 2060,
      "rill": 2061,
      "aring": 2062,
      "ford": 2063,
      "tries": 2064,
      "department": 2065,
      "ipal": 2066,
      "posed": 2067,
      "Most": 2068,
      "similar": 2069,
      "Cr": 2070,
      "Dre": 2071,
      "ES": 2072,
      "ON": 2073,
      "bac": 2074,
      "cars": 2075,
      "mater": 2076,
      "que": 2077,
      "Germany": 2078,
      "associ": 2079,
      "super": 2080,
      "umb": 2081,
      "whose": 2082,
      "working": 2083,
      "ences": 2084,
      "talk": 2085,
      "Western": 2086,
      "equipment": 2087,
      "looking": 2088,
      "succeed": 2089,
      "different": 2090,
      "reached": 2091,
      "suggest": 2092,
      "Cl": 2093,
      "below": 2094,
      "lost": 2095,
      "retary": 2096,
      "increases": 2097,
      "United": 2098,
      "payments": 2099,
      "biggest": 2100,
      "following": 2101,
      "efforts": 2102,
      "figures": 2103,
      "boost": 2104,
      "Sw": 2105,
      "ather": 2106,
      "ban": 2107,
      "labor": 2108,
      "ured": 2109,
      "ont": 2110,
      "approved": 2111,
      "abortion": 2112,
      "Wed": 2113,
      "gold": 2114,
      "jum": 2115,
      "marg": 2116,
      "nec": 2117,
      "side": 2118,
      "var": 2119,
      "attem": 2120,
      "aran": 2121,
      "comb": 2122,
      "perfor": 2123,
      "uses": 2124,
      "prefer": 2125,
      "industrial": 2126,
      "announce": 2127,
      "asked": 2128,
      "AN": 2129,
      "Che": 2130,
      "Rep": 2131,
      "Sm": 2132,
      "lots": 2133,
      "anti": 2134,
      "University": 2135,
      "venture": 2136,
      "publish": 2137,
      "member": 2138,
      "judge": 2139,
      "target": 2140,
      "hom": 2141,
      "sess": 2142,
      "ville": 2143,
      "dest": 2144,
      "istic": 2145,
      "Thom": 2146,
      "Boston": 2147,
      "steel": 2148,
      "systems": 2149,
      "North": 2150,
      "subsidiary": 2151,
      "William": 2152,
      "bought": 2153,
      "rat": 2154,
      "terms": 2155,
      "class": 2156,
      "defense": 2157,
      "taking": 2158,
      "dependent": 2159,
      "Republ": 2160,
      "fair": 2161,
      "ined": 2162,
      "rele": 2163,
      "alter": 2164,
      "Financ": 2165,
      "schedul": 2166,
      "slightly": 2167,
      "Jan": 2168,
      "Jud": 2169,
      "night": 2170,
      "environment": 2171,
      "sem": 2172,
      "saying": 2173,
      "partners": 2174,
      "leading": 2175,
      "approval": 2176,
      "Court": 2177,
      "difficult": 2178,
      "performan": 2179,
      "AL": 2180,
      "Mit": 2181,
      "Po": 2182,
      "System": 2183,
      "body": 2184,
      "nes": 2185,
      "water": 2186,
      "reme": 2187,
      "ises": 2188,
      "isions": 2189,
      "quot": 2190,
      "finance": 2191,
      "minim": 2192,
      "Frank": 2193,
      "volat": 2194,
      "paign": 2195,
      "plants": 2196,
      "Britain": 2197,
      "range": 2198,
      "Del": 2199,
      "Gold": 2200,
      "ler": 2201,
      "ters": 2202,
      "atory": 2203,
      "staff": 2204,
      "along": 2205,
      "sec": 2206,
      "pop": 2207,
      "Institut": 2208,
      "rather": 2209,
      "talks": 2210,
      "desp": 2211,
      "selves": 2212,
      "bills": 2213,
      "clients": 2214,
      "electron": 2215,
      "World": 2216,
      "recess": 2217,
      "reports": 2218,
      "states": 2219,
      "thern": 2220,
      "erves": 2221,
      "reduce": 2222,
      "strategy": 2223,
      "discuss": 2224,
      "Even": 2225,
      "ric": 2226,
      "threat": 2227,
      "heavy": 2228,
      "char": 2229,
      "suf": 2230,
      "abl": 2231,
      "eighth": 2232,
      "plac": 2233,
      "store": 2234,
      "something": 2235,
      "surpr": 2236,
      "acquired": 2237,
      "manufacturing": 2238,
      "domestic": 2239,
      "Chair": 2240,
      "Angeles": 2241,
      "Mass": 2242,
      "block": 2243,
      "iet": 2244,
      "jects": 2245,
      "wants": 2246,
      "ills": 2247,
      "included": 2248,
      "Commission": 2249,
      "completed": 2250,
      "Austr": 2251,
      "portfolio": 2252,
      "campaign": 2253,
      "Chairman": 2254,
      "Cam": 2255,
      "Ed": 2256,
      "Hong": 2257,
      "Is": 2258,
      "Just": 2259,
      "Lyn": 2260,
      "Med": 2261,
      "aging": 2262,
      "oung": 2263,
      "feel": 2264,
      "Represent": 2265,
      "parts": 2266,
      "person": 2267,
      "levels": 2268,
      "property": 2269,
      "lawyers": 2270,
      "ED": 2271,
      "dist": 2272,
      "fast": 2273,
      "vic": 2274,
      "roll": 2275,
      "consum": 2276,
      "truck": 2277,
      "augh": 2278,
      "holder": 2279,
      "worth": 2280,
      "directors": 2281,
      "ruptcy": 2282,
      "His": 2283,
      "lor": 2284,
      "reco": 2285,
      "ats": 2286,
      "toward": 2287,
      "vey": 2288,
      "cted": 2289,
      "push": 2290,
      "profits": 2291,
      "groups": 2292,
      "helped": 2293,
      "course": 2294,
      "Although": 2295,
      "remains": 2296,
      "famili": 2297,
      "vote": 2298,
      "seeking": 2299,
      "Richard": 2300,
      "performance": 2301,
      "despite": 2302,
      "Austral": 2303,
      "Bar": 2304,
      "Of": 2305,
      "Sch": 2306,
      "flow": 2307,
      "pick": 2308,
      "went": 2309,
      "rev": 2310,
      "itors": 2311,
      "unch": 2312,
      "fil": 2313,
      "convert": 2314,
      "sho": 2315,
      "investments": 2316,
      "draw": 2317,
      "raised": 2318,
      "attle": 2319,
      "Bay": 2320,
      "Kong": 2321,
      "ham": 2322,
      "mal": 2323,
      "xel": 2324,
      "itary": 2325,
      "typ": 2326,
      "establ": 2327,
      "ify": 2328,
      "disclosed": 2329,
      "owns": 2330,
      "issued": 2331,
      "substant": 2332,
      "ension": 2333,
      "Drexel": 2334,
      "uel": 2335,
      "adds": 2336,
      "themselves": 2337,
      "Canada": 2338,
      "given": 2339,
      "recession": 2340,
      "Ber": 2341,
      "Pl": 2342,
      "Ser": 2343,
      "ring": 2344,
      "rist": 2345,
      "tend": 2346,
      "ently": 2347,
      "plun": 2348,
      "stores": 2349,
      "crash": 2350,
      "subject": 2351,
      "interests": 2352,
      "profess": 2353,
      "involved": 2354,
      "Columb": 2355,
      "measure": 2356,
      "legislation": 2357,
      "consult": 2358,
      "favor": 2359,
      "Ear": 2360,
      "Tele": 2361,
      "card": 2362,
      "spr": 2363,
      "uing": 2364,
      "stat": 2365,
      "although": 2366,
      "always": 2367,
      "separ": 2368,
      "posted": 2369,
      "exist": 2370,
      "tell": 2371,
      "ilt": 2372,
      "hael": 2373,
      "focus": 2374,
      "airline": 2375,
      "State": 2376,
      "Cont": 2377,
      "respond": 2378,
      "organization": 2379,
      "started": 2380,
      "usually": 2381,
      "scheduled": 2382,
      "January": 2383,
      "CO": 2384,
      "Ne": 2385,
      "Two": 2386,
      "gg": 2387,
      "mortgage": 2388,
      "van": 2389,
      "really": 2390,
      "ention": 2391,
      "seen": 2392,
      "rench": 2393,
      "countries": 2394,
      "concerns": 2395,
      "Merrill": 2396,
      "failed": 2397,
      "Financial": 2398,
      "done": 2399,
      "alle": 2400,
      "trust": 2401,
      "pri": 2402,
      "space": 2403,
      "anced": 2404,
      "rend": 2405,
      "forecast": 2406,
      "currency": 2407,
      "seems": 2408,
      "huge": 2409,
      "options": 2410,
      "particularly": 2411,
      "necess": 2412,
      "Representative": 2413,
      "aint": 2414,
      "word": 2415,
      "item": 2416,
      "ecially": 2417,
      "arson": 2418,
      "plic": 2419,
      "anta": 2420,
      "newsp": 2421,
      "basis": 2422,
      "minor": 2423,
      "operation": 2424,
      "longer": 2425,
      "Trans": 2426,
      "television": 2427,
      "strateg": 2428,
      "activity": 2429,
      "pounds": 2430,
      "Michael": 2431,
      "quality": 2432,
      "arbitrage": 2433,
      "Fund": 2434,
      "congress": 2435,
      "proceed": 2436,
      "pressure": 2437,
      "affect": 2438,
      "expand": 2439,
      "specific": 2440,
      "dealers": 2441,
      "especially": 2442,
      "quickly": 2443,
      "Lynch": 2444,
      "Coun": 2445,
      "Ele": 2446,
      "Lo": 2447,
      "cing": 2448,
      "treat": 2449,
      "independent": 2450,
      "sty": 2451,
      "ica": 2452,
      "idge": 2453,
      "prosecut": 2454,
      "ama": 2455,
      "deed": 2456,
      "prim": 2457,
      "buyers": 2458,
      "deficit": 2459,
      "estimates": 2460,
      "interview": 2461,
      "Peters": 2462,
      "previously": 2463,
      "Canadian": 2464,
      "hours": 2465,
      "di": 2466,
      "gency": 2467,
      "pet": 2468,
      "ona": 2469,
      "bel": 2470,
      "immedi": 2471,
      "liqu": 2472,
      "princ": 2473,
      "percentage": 2474,
      "Thurs": 2475,
      "prem": 2476,
      "appear": 2477,
      "apparent": 2478,
      "impact": 2479,
      "limited": 2480,
      "rules": 2481,
      "Columbia": 2482,
      "ici": 2483,
      "cher": 2484,
      "defin": 2485,
      "mov": 2486,
      "ground": 2487,
      "graph": 2488,
      "discoun": 2489,
      "Analyst": 2490,
      "Char": 2491,
      "underwrit": 2492,
      "includes": 2493,
      "thought": 2494,
      "acquire": 2495,
      "onald": 2496,
      "distribut": 2497,
      "institutions": 2498,
      "simply": 2499,
      "Thursday": 2500,
      "Bond": 2501,
      "Business": 2502,
      "Journal": 2503,
      "ahead": 2504,
      "cas": 2505,
      "cul": 2506,
      "ned": 2507,
      "ening": 2508,
      "town": 2509,
      "lying": 2510,
      "center": 2511,
      "shop": 2512,
      "west": 2513,
      "portation": 2514,
      "aft": 2515,
      "Both": 2516,
      "approach": 2517,
      "magazine": 2518,
      "Morgan": 2519,
      "Qu": 2520,
      "gn": 2521,
      "ung": 2522,
      "fri": 2523,
      "avo": 2524,
      "clud": 2525,
      "largely": 2526,
      "gained": 2527,
      "guaran": 2528,
      "estimate": 2529,
      "competition": 2530,
      "Wednes": 2531,
      "Per": 2532,
      "trend": 2533,
      "fix": 2534,
      "depos": 2535,
      "ife": 2536,
      "tradition": 2537,
      "bring": 2538,
      "ference": 2539,
      "enses": 2540,
      "turned": 2541,
      "Senator": 2542,
      "brokers": 2543,
      "Investors": 2544,
      "brokerage": 2545,
      "scient": 2546,
      "Analysts": 2547,
      "kill": 2548,
      "lu": 2549,
      "atives": 2550,
      "sector": 2551,
      "acc": 2552,
      "areas": 2553,
      "iring": 2554,
      "condu": 2555,
      "model": 2556,
      "having": 2557,
      "traded": 2558,
      "survey": 2559,
      "Christ": 2560,
      "atively": 2561,
      "techn": 2562,
      "serious": 2563,
      "covered": 2564,
      "outside": 2565,
      "Electr": 2566,
      "Wednesday": 2567,
      "French": 2568,
      "Mor": 2569,
      "Other": 2570,
      "mail": 2571,
      "ental": 2572,
      "pose": 2573,
      "aker": 2574,
      "else": 2575,
      "note": 2576,
      "means": 2577,
      "receive": 2578,
      "considered": 2579,
      "Shearson": 2580,
      "usual": 2581,
      "hurt": 2582,
      "Dig": 2583,
      "ker": 2584,
      "sion": 2585,
      "reject": 2586,
      "omet": 2587,
      "acity": 2588,
      "improv": 2589,
      "prevent": 2590,
      "anything": 2591,
      "encies": 2592,
      "Moody": 2593,
      "defend": 2594,
      "returns": 2595,
      "colle": 2596,
      "detail": 2597,
      "series": 2598,
      "effective": 2599,
      "supply": 2600,
      "situation": 2601,
      "Val": 2602,
      "aul": 2603,
      "ding": 2604,
      "iers": 2605,
      "rap": 2606,
      "anwhile": 2607,
      "stren": 2608,
      "asset": 2609,
      "ico": 2610,
      "experi": 2611,
      "projects": 2612,
      "clim": 2613,
      "ugg": 2614,
      "producers": 2615,
      "needed": 2616,
      "accounts": 2617,
      "solid": 2618,
      "generally": 2619,
      "Among": 2620,
      "human": 2621,
      "Meanwhile": 2622,
      "Cor": 2623,
      "ming": 2624,
      "ource": 2625,
      "built": 2626,
      "crimin": 2627,
      "Health": 2628,
      "Still": 2629,
      "tempor": 2630,
      "ption": 2631,
      "caused": 2632,
      "showed": 2633,
      "beginning": 2634,
      "Georg": 2635,
      "Judge": 2636,
      "Not": 2637,
      "fill": 2638,
      "mind": 2639,
      "produce": 2640,
      "capacity": 2641,
      "required": 2642,
      "military": 2643,
      "history": 2644,
      "streng": 2645,
      "RI": 2646,
      "Since": 2647,
      "jury": 2648,
      "mut": 2649,
      "parent": 2650,
      "review": 2651,
      "isers": 2652,
      "urers": 2653,
      "comes": 2654,
      "haps": 2655,
      "ott": 2656,
      "France": 2657,
      "spokeswoman": 2658,
      "predic": 2659,
      "floor": 2660,
      "Motor": 2661,
      "minimum": 2662,
      "Georgia": 2663,
      "Apr": 2664,
      "cand": 2665,
      "stay": 2666,
      "oming": 2667,
      "lied": 2668,
      "akes": 2669,
      "marks": 2670,
      "opport": 2671,
      "communications": 2672,
      "majority": 2673,
      "Also": 2674,
      "sense": 2675,
      "Atl": 2676,
      "summer": 2677,
      "promot": 2678,
      "Brothers": 2679,
      "study": 2680,
      "Eastern": 2681,
      "benefits": 2682,
      "daily": 2683,
      "planned": 2684,
      "George": 2685,
      "children": 2686,
      "Series": 2687,
      "April": 2688,
      "game": 2689,
      "ron": 2690,
      "swe": 2691,
      "ener": 2692,
      "editor": 2693,
      "aly": 2694,
      "veh": 2695,
      "veto": 2696,
      "trial": 2697,
      "moves": 2698,
      "gel": 2699,
      "gether": 2700,
      "sett": 2701,
      "taxes": 2702,
      "smaller": 2703,
      "reduced": 2704,
      "wanted": 2705,
      "Doctor": 2706,
      "Institute": 2707,
      "Data": 2708,
      "cts": 2709,
      "glo": 2710,
      "ires": 2711,
      "reserves": 2712,
      "size": 2713,
      "merger": 2714,
      "produced": 2715,
      "bankruptcy": 2716,
      "farm": 2717,
      "Commit": 2718,
      "limit": 2719,
      "anticip": 2720,
      "Kid": 2721,
      "hind": 2722,
      "assist": 2723,
      "tware": 2724,
      "moved": 2725,
      "shareholder": 2726,
      "spread": 2727,
      "neg": 2728,
      "ancer": 2729,
      "Comput": 2730,
      "became": 2731,
      "earned": 2732,
      "leader": 2733,
      "Trust": 2734,
      "pilots": 2735,
      "appropri": 2736,
      "Industries": 2737,
      "double": 2738,
      "settlement": 2739,
      "educ": 2740,
      "announcement": 2741,
      "session": 2742,
      "Committee": 2743,
      "Part": 2744,
      "Sa": 2745,
      "ga": 2746,
      "instead": 2747,
      "itch": 2748,
      "susp": 2749,
      "acted": 2750,
      "quarterly": 2751,
      "media": 2752,
      "request": 2753,
      "Bell": 2754,
      "telephone": 2755,
      "Smith": 2756,
      "Mex": 2757,
      "fight": 2758,
      "ood": 2759,
      "rad": 2760,
      "uset": 2761,
      "won": 2762,
      "together": 2763,
      "idel": 2764,
      "perform": 2765,
      "why": 2766,
      "achuset": 2767,
      "conditions": 2768,
      "ficient": 2769,
      "machine": 2770,
      "sharply": 2771,
      "restrict": 2772,
      "Massachuset": 2773,
      "Massachusetts": 2774,
      "mas": 2775,
      "sort": 2776,
      "watch": 2777,
      "commod": 2778,
      "ares": 2779,
      "agan": 2780,
      "extra": 2781,
      "sav": 2782,
      "partner": 2783,
      "izing": 2784,
      "Americans": 2785,
      "Express": 2786,
      "continuing": 2787,
      "party": 2788,
      "matter": 2789,
      "women": 2790,
      "Digital": 2791,
      "Sup": 2792,
      "ked": 2793,
      "miss": 2794,
      "sat": 2795,
      "inal": 2796,
      "aries": 2797,
      "itz": 2798,
      "across": 2799,
      "veraged": 2800,
      "print": 2801,
      "willing": 2802,
      "auction": 2803,
      "flat": 2804,
      "host": 2805,
      "Communications": 2806,
      "questions": 2807,
      "hopes": 2808,
      "borrow": 2809,
      "Guber": 2810,
      "Systems": 2811,
      "volatility": 2812,
      "convertible": 2813,
      "fixed": 2814,
      "AS": 2815,
      "Average": 2816,
      "Gor": 2817,
      "Har": 2818,
      "ax": 2819,
      "kin": 2820,
      "rough": 2821,
      "ert": 2822,
      "ane": 2823,
      "ene": 2824,
      "agg": 2825,
      "live": 2826,
      "franch": 2827,
      "aine": 2828,
      "actual": 2829,
      "overseas": 2830,
      "iff": 2831,
      "nothing": 2832,
      "decided": 2833,
      "Web": 2834,
      "security": 2835,
      "premium": 2836,
      "Kidder": 2837,
      "Ab": 2838,
      "Donald": 2839,
      "hor": 2840,
      "pted": 2841,
      "rican": 2842,
      "tough": 2843,
      "vy": 2844,
      "wage": 2845,
      "recomm": 2846,
      "accept": 2847,
      "ads": 2848,
      "imports": 2849,
      "foot": 2850,
      "pret": 2851,
      "retire": 2852,
      "paying": 2853,
      "continues": 2854,
      "tainment": 2855,
      "Phili": 2856,
      "evidence": 2857,
      "software": 2858,
      "separate": 2859,
      "liquid": 2860,
      "Bu": 2861,
      "Its": 2862,
      "bon": 2863,
      "mp": 2864,
      "nar": 2865,
      "psy": 2866,
      "orig": 2867,
      "strike": 2868,
      "usion": 2869,
      "holds": 2870,
      "encour": 2871,
      "created": 2872,
      "followed": 2873,
      "Reserve": 2874,
      "complete": 2875,
      "ruling": 2876,
      "designed": 2877,
      "Democratic": 2878,
      "natural": 2879,
      "protection": 2880,
      "avoid": 2881,
      "AR": 2882,
      "Bec": 2883,
      "Dink": 2884,
      "Flor": 2885,
      "cat": 2886,
      "onto": 2887,
      "alty": 2888,
      "entire": 2889,
      "fort": 2890,
      "trip": 2891,
      "Insurance": 2892,
      "offset": 2893,
      "spir": 2894,
      "prep": 2895,
      "Stan": 2896,
      "transactions": 2897,
      "Trad": 2898,
      "developed": 2899,
      "write": 2900,
      "creditors": 2901,
      "collap": 2902,
      "morning": 2903,
      "Democrats": 2904,
      "houses": 2905,
      "congressional": 2906,
      "Dinkins": 2907,
      "Su": 2908,
      "lan": 2909,
      "young": 2910,
      "zed": 2911,
      "ination": 2912,
      "ute": 2913,
      "ird": 2914,
      "moving": 2915,
      "feat": 2916,
      "idea": 2917,
      "payment": 2918,
      "yields": 2919,
      "letter": 2920,
      "himself": 2921,
      "opened": 2922,
      "Airlines": 2923,
      "believes": 2924,
      "Peter": 2925,
      "hope": 2926,
      "Market": 2927,
      "response": 2928,
      "rule": 2929,
      "spring": 2930,
      "ricane": 2931,
      "lic": 2932,
      "mom": 2933,
      "na": 2934,
      "ple": 2935,
      "ream": 2936,
      "poll": 2937,
      "plus": 2938,
      "article": 2939,
      "spent": 2940,
      "renz": 2941,
      "brought": 2942,
      "thrift": 2943,
      "regard": 2944,
      "Connect": 2945,
      "shows": 2946,
      "influ": 2947,
      "Moreover": 2948,
      "Green": 2949,
      "Hugo": 2950,
      "apparently": 2951,
      "Computer": 2952,
      "Desp": 2953,
      "Mid": 2954,
      "Sc": 2955,
      "rating": 2956,
      "insur": 2957,
      "chall": 2958,
      "bell": 2959,
      "sume": 2960,
      "exer": 2961,
      "conserv": 2962,
      "dev": 2963,
      "franc": 2964,
      "kept": 2965,
      "decl": 2966,
      "check": 2967,
      "rising": 2968,
      "closely": 2969,
      "Ariz": 2970,
      "allowed": 2971,
      "regulators": 2972,
      "machines": 2973,
      "delivery": 2974,
      "Service": 2975,
      "People": 2976,
      "Justice": 2977,
      "Afr": 2978,
      "Act": 2979,
      "CI": 2980,
      "Hold": 2981,
      "bol": 2982,
      "mix": 2983,
      "tap": 2984,
      "seg": 2985,
      "lear": 2986,
      "acce": 2987,
      "agencies": 2988,
      "suits": 2989,
      "export": 2990,
      "white": 2991,
      "terr": 2992,
      "prior": 2993,
      "offices": 2994,
      "elimin": 2995,
      "spital": 2996,
      "disappoint": 2997,
      "final": 2998,
      "needs": 2999,
      "travel": 3000,
      "passed": 3001,
      "deliver": 3002,
      "Poland": 3003,
      "Jer": 3004,
      "Kore": 3005,
      "Net": 3006,
      "Oh": 3007,
      "aur": 3008,
      "battle": 3009,
      "gal": 3010,
      "ience": 3011,
      "pon": 3012,
      "tur": 3013,
      "atter": 3014,
      "icut": 3015,
      "hev": 3016,
      "forced": 3017,
      "ece": 3018,
      "exports": 3019,
      "track": 3020,
      "earch": 3021,
      "modest": 3022,
      "social": 3023,
      "actually": 3024,
      "investig": 3025,
      "whole": 3026,
      "partly": 3027,
      "compar": 3028,
      "News": 3029,
      "eff": 3030,
      "pressed": 3031,
      "reduction": 3032,
      "version": 3033,
      "running": 3034,
      "Research": 3035,
      "season": 3036,
      "package": 3037,
      "coupon": 3038,
      "critic": 3039,
      "introduced": 3040,
      "bachev": 3041,
      "jumped": 3042,
      "popular": 3043,
      "consumers": 3044,
      "newspaper": 3045,
      "Gorbachev": 3046,
      "Because": 3047,
      "Connecticut": 3048,
      "Despite": 3049,
      "Baker": 3050,
      "Lou": 3051,
      "Niss": 3052,
      "Ter": 3053,
      "Tech": 3054,
      "civ": 3055,
      "cited": 3056,
      "cancer": 3057,
      "ease": 3058,
      "fel": 3059,
      "hy": 3060,
      "smo": 3061,
      "tre": 3062,
      "invent": 3063,
      "reform": 3064,
      "story": 3065,
      "exceed": 3066,
      "sia": 3067,
      "front": 3068,
      "bure": 3069,
      "trader": 3070,
      "possib": 3071,
      "works": 3072,
      "airs": 3073,
      "Reagan": 3074,
      "contribut": 3075,
      "unicipal": 3076,
      "Industrial": 3077,
      "preferred": 3078,
      "suffer": 3079,
      "savings": 3080,
      "exerc": 3081,
      "Fu": 3082,
      "avi": 3083,
      "pension": 3084,
      "hest": 3085,
      "unchanged": 3086,
      "chance": 3087,
      "beg": 3088,
      "behind": 3089,
      "constitut": 3090,
      "teach": 3091,
      "offers": 3092,
      "berg": 3093,
      "spend": 3094,
      "merch": 3095,
      "commission": 3096,
      "closing": 3097,
      "signed": 3098,
      "advanced": 3099,
      "collect": 3100,
      "Management": 3101,
      "thirteenth": 3102,
      "initial": 3103,
      "According": 3104,
      "attempt": 3105,
      "environmental": 3106,
      "partnership": 3107,
      "Arizona": 3108,
      "Nissan": 3109,
      "Don": 3110,
      "Hut": 3111,
      "Penn": 3112,
      "pen": 3113,
      "spl": 3114,
      "lly": 3115,
      "omon": 3116,
      "filing": 3117,
      "conference": 3118,
      "lip": 3119,
      "iled": 3120,
      "valued": 3121,
      "syn": 3122,
      "particip": 3123,
      "appeal": 3124,
      "Junior": 3125,
      "resigned": 3126,
      "friend": 3127,
      "narrow": 3128,
      "Govern": 3129,
      "cil": 3130,
      "cause": 3131,
      "gave": 3132,
      "hman": 3133,
      "iver": 3134,
      "rep": 3135,
      "entures": 3136,
      "iding": 3137,
      "leave": 3138,
      "leveraged": 3139,
      "chip": 3140,
      "dead": 3141,
      "core": 3142,
      "portion": 3143,
      "disput": 3144,
      "elected": 3145,
      "economists": 3146,
      "contributed": 3147,
      "medical": 3148,
      "clean": 3149,
      "tests": 3150,
      "Johnson": 3151,
      "greater": 3152,
      "lawyer": 3153,
      "familiar": 3154,
      "alleged": 3155,
      "ometimes": 3156,
      "improved": 3157,
      "energy": 3158,
      "Ill": 3159,
      "Mac": 3160,
      "Qint": 3161,
      "Str": 3162,
      "Such": 3163,
      "Tor": 3164,
      "Vi": 3165,
      "bot": 3166,
      "dle": 3167,
      "fear": 3168,
      "iven": 3169,
      "king": 3170,
      "tum": 3171,
      "zen": 3172,
      "anger": 3173,
      "forces": 3174,
      "resol": 3175,
      "merce": 3176,
      "expenses": 3177,
      "provision": 3178,
      "relatively": 3179,
      "amounts": 3180,
      "practice": 3181,
      "circ": 3182,
      "Australia": 3183,
      "bureau": 3184,
      "Qintex": 3185,
      "Sony": 3186,
      "Santa": 3187,
      "hn": 3188,
      "hol": 3189,
      "larg": 3190,
      "mine": 3191,
      "rew": 3192,
      "asing": 3193,
      "sequ": 3194,
      "heavi": 3195,
      "demon": 3196,
      "death": 3197,
      "lief": 3198,
      "ples": 3199,
      "ishing": 3200,
      "fees": 3201,
      "raising": 3202,
      "interested": 3203,
      "economist": 3204,
      "wrong": 3205,
      "controlled": 3206,
      "promise": 3207,
      "Eng": 3208,
      "Enter": 3209,
      "directly": 3210,
      "delay": 3211,
      "appears": 3212,
      "district": 3213,
      "benefit": 3214,
      "Markets": 3215,
      "mitted": 3216,
      "instance": 3217,
      "victim": 3218,
      "necessary": 3219,
      "mutual": 3220,
      "Hur": 3221,
      "Jack": 3222,
      "Lu": 3223,
      "Mil": 3224,
      "Pack": 3225,
      "Sun": 3226,
      "Time": 3227,
      "dy": 3228,
      "fun": 3229,
      "hig": 3230,
      "rum": 3231,
      "scal": 3232,
      "street": 3233,
      "iser": 3234,
      "poor": 3235,
      "except": 3236,
      "cell": 3237,
      "panel": 3238,
      "deals": 3239,
      "ower": 3240,
      "Then": 3241,
      "bling": 3242,
      "goes": 3243,
      "decade": 3244,
      "aving": 3245,
      "highly": 3246,
      "branch": 3247,
      "taint": 3248,
      "attack": 3249,
      "bidding": 3250,
      "join": 3251,
      "opening": 3252,
      "Salomon": 3253,
      "McC": 3254,
      "figure": 3255,
      "secretary": 3256,
      "Isra": 3257,
      "Stanley": 3258,
      "High": 3259,
      "Yesterday": 3260,
      "ault": 3261,
      "giving": 3262,
      "har": 3263,
      "warr": 3264,
      "yond": 3265,
      "sey": 3266,
      "rol": 3267,
      "chain": 3268,
      "inte": 3269,
      "image": 3270,
      "abs": 3271,
      "liance": 3272,
      "fraud": 3273,
      "Another": 3274,
      "risks": 3275,
      "lett": 3276,
      "hands": 3277,
      "casting": 3278,
      "activities": 3279,
      "doub": 3280,
      "Services": 3281,
      "Valley": 3282,
      "negative": 3283,
      "Supreme": 3284,
      "Louis": 3285,
      "Fuj": 3286,
      "Dr": 3287,
      "HE": 3288,
      "bound": 3289,
      "gers": 3290,
      "hib": 3291,
      "nu": 3292,
      "scre": 3293,
      "yard": 3294,
      "insist": 3295,
      "ered": 3296,
      "alone": 3297,
      "ida": 3298,
      "access": 3299,
      "fili": 3300,
      "lose": 3301,
      "saw": 3302,
      "ctors": 3303,
      "trades": 3304,
      "award": 3305,
      "disaster": 3306,
      "worked": 3307,
      "provides": 3308,
      "funding": 3309,
      "obtain": 3310,
      "worr": 3311,
      "hotel": 3312,
      "create": 3313,
      "declines": 3314,
      "takes": 3315,
      "considering": 3316,
      "Lehman": 3317,
      "researchers": 3318,
      "policies": 3319,
      "widely": 3320,
      "jobs": 3321,
      "Lawson": 3322,
      "speed": 3323,
      "maintain": 3324,
      "loyd": 3325,
      "material": 3326,
      "various": 3327,
      "Republic": 3328,
      "placed": 3329,
      "recogn": 3330,
      "existing": 3331,
      "candid": 3332,
      "larger": 3333,
      "highest": 3334,
      "Jo": 3335,
      "Lloyd": 3336,
      "Met": 3337,
      "Pan": 3338,
      "Pal": 3339,
      "Sav": 3340,
      "Yet": 3341,
      "mus": 3342,
      "rated": 3343,
      "squ": 3344,
      "sound": 3345,
      "ani": 3346,
      "ange": 3347,
      "replace": 3348,
      "lle": 3349,
      "icon": 3350,
      "hear": 3351,
      "heart": 3352,
      "sured": 3353,
      "excl": 3354,
      "ressive": 3355,
      "fifth": 3356,
      "aware": 3357,
      "bles": 3358,
      "gets": 3359,
      "attention": 3360,
      "ification": 3361,
      "descr": 3362,
      "fifteenth": 3363,
      "ibility": 3364,
      "purchases": 3365,
      "Brown": 3366,
      "planning": 3367,
      "normal": 3368,
      "emergency": 3369,
      "substantial": 3370,
      "Mexico": 3371,
      "francs": 3372,
      "Bur": 3373,
      "Home": 3374,
      "Jose": 3375,
      "Labor": 3376,
      "UN": 3377,
      "bi": 3378,
      "ken": 3379,
      "nel": 3380,
      "oo": 3381,
      "pence": 3382,
      "rally": 3383,
      "forms": 3384,
      "fire": 3385,
      "Indeed": 3386,
      "ultim": 3387,
      "umber": 3388,
      "presents": 3389,
      "preci": 3390,
      "Brad": 3391,
      "speculation": 3392,
      "tons": 3393,
      "debentures": 3394,
      "managing": 3395,
      "matur": 3396,
      "competitors": 3397,
      "carry": 3398,
      "predict": 3399,
      "employment": 3400,
      "engineering": 3401,
      "El": 3402,
      "Pit": 3403,
      "barr": 3404,
      "ibas": 3405,
      "mult": 3406,
      "sed": 3407,
      "wid": 3408,
      "xim": 3409,
      "alleg": 3410,
      "docu": 3411,
      "utical": 3412,
      "plast": 3413,
      "ump": 3414,
      "feet": 3415,
      "adding": 3416,
      "Whit": 3417,
      "subordin": 3418,
      "Thatcher": 3419,
      "profitable": 3420,
      "headquarters": 3421,
      "Stein": 3422,
      "regulatory": 3423,
      "indicated": 3424,
      "Paribas": 3425,
      "acquisitions": 3426,
      "institutional": 3427,
      "option": 3428,
      "occur": 3429,
      "giant": 3430,
      "motive": 3431,
      "experim": 3432,
      "barrel": 3433,
      "Chemical": 3434,
      "electronic": 3435,
      "consultant": 3436,
      "style": 3437,
      "traditional": 3438,
      "Electric": 3439,
      "franchise": 3440,
      "moment": 3441,
      "integr": 3442,
      "Du": 3443,
      "EC": 3444,
      "LIN": 3445,
      "Mal": 3446,
      "Nas": 3447,
      "Vol": 3448,
      "date": 3449,
      "ee": 3450,
      "sports": 3451,
      "stem": 3452,
      "icles": 3453,
      "rown": 3454,
      "urer": 3455,
      "urch": 3456,
      "perhaps": 3457,
      "agon": 3458,
      "resist": 3459,
      "depart": 3460,
      "applic": 3461,
      "affili": 3462,
      "Commerce": 3463,
      "aceutical": 3464,
      "laws": 3465,
      "relation": 3466,
      "stein": 3467,
      "certaint": 3468,
      "Secretary": 3469,
      "match": 3470,
      "refle": 3471,
      "facilities": 3472,
      "corn": 3473,
      "successful": 3474,
      "armaceutical": 3475,
      "roleum": 3476,
      "ownership": 3477,
      "Index": 3478,
      "Cray": 3479,
      "margins": 3480,
      "aught": 3481,
      "settled": 3482,
      "split": 3483,
      "During": 3484,
      "Off": 3485,
      "Park": 3486,
      "Red": 3487,
      "band": 3488,
      "hatt": 3489,
      "ram": 3490,
      "sn": 3491,
      "tour": 3492,
      "instru": 3493,
      "refin": 3494,
      "utes": 3495,
      "conv": 3496,
      "consist": 3497,
      "iling": 3498,
      "apers": 3499,
      "overall": 3500,
      "positions": 3501,
      "expensive": 3502,
      "rent": 3503,
      "Chin": 3504,
      "bids": 3505,
      "ulture": 3506,
      "seconds": 3507,
      "structure": 3508,
      "Manhatt": 3509,
      "students": 3510,
      "slowdown": 3511,
      "properties": 3512,
      "measures": 3513,
      "magazines": 3514,
      "steps": 3515,
      "Food": 3516,
      "adjusted": 3517,
      "reflecting": 3518,
      "materials": 3519,
      "Thomas": 3520,
      "quoted": 3521,
      "Medical": 3522,
      "guarante": 3523,
      "rejected": 3524,
      "challen": 3525,
      "Ohio": 3526,
      "Hutton": 3527,
      "Hurricane": 3528,
      "Manhattan": 3529,
      "App": 3530,
      "Ban": 3531,
      "Her": 3532,
      "Lit": 3533,
      "Mach": 3534,
      "fuel": 3535,
      "inj": 3536,
      "erate": 3537,
      "refer": 3538,
      "omb": 3539,
      "beyond": 3540,
      "enders": 3541,
      "ective": 3542,
      "investigation": 3543,
      "blue": 3544,
      "cru": 3545,
      "crime": 3546,
      "mostly": 3547,
      "provided": 3548,
      "industries": 3549,
      "gene": 3550,
      "pursu": 3551,
      "guidel": 3552,
      "Rock": 3553,
      "equal": 3554,
      "Prof": 3555,
      "competitive": 3556,
      "runs": 3557,
      "bench": 3558,
      "launch": 3559,
      "involving": 3560,
      "drugs": 3561,
      "machin": 3562,
      "daq": 3563,
      "individuals": 3564,
      "Swiss": 3565,
      "homes": 3566,
      "experience": 3567,
      "langu": 3568,
      "Nasdaq": 3569,
      "Equ": 3570,
      "Tel": 3571,
      "Vir": 3572,
      "sought": 3573,
      "vac": 3574,
      "incent": 3575,
      "ita": 3576,
      "exchanges": 3577,
      "connect": 3578,
      "saf": 3579,
      "pled": 3580,
      "wealth": 3581,
      "grad": 3582,
      "achie": 3583,
      "surv": 3584,
      "expectations": 3585,
      "factors": 3586,
      "cuts": 3587,
      "cutting": 3588,
      "calcul": 3589,
      "controvers": 3590,
      "players": 3591,
      "restaur": 3592,
      "attributed": 3593,
      "Associates": 3594,
      "easy": 3595,
      "soft": 3596,
      "housing": 3597,
      "Republican": 3598,
      "immediately": 3599,
      "discount": 3600,
      "conservative": 3601,
      "civil": 3602,
      "Toronto": 3603,
      "Chinese": 3604,
      "Im": 3605,
      "ds": 3606,
      "round": 3607,
      "inion": 3608,
      "orm": 3609,
      "star": 3610,
      "assum": 3611,
      "igan": 3612,
      "chips": 3613,
      "door": 3614,
      "type": 3615,
      "sian": 3616,
      "ounce": 3617,
      "craft": 3618,
      "specul": 3619,
      "publicly": 3620,
      "advant": 3621,
      "choice": 3622,
      "remaining": 3623,
      "Brook": 3624,
      "Sears": 3625,
      "Investment": 3626,
      "modern": 3627,
      "miles": 3628,
      "events": 3629,
      "plunge": 3630,
      "movie": 3631,
      "rapid": 3632,
      "Partners": 3633,
      "Florida": 3634,
      "safety": 3635,
      "Mich": 3636,
      "Nav": 3637,
      "Sci": 3638,
      "Work": 3639,
      "Year": 3640,
      "bus": 3641,
      "fit": 3642,
      "gives": 3643,
      "mission": 3644,
      "neigh": 3645,
      "rich": 3646,
      "tick": 3647,
      "etary": 3648,
      "unless": 3649,
      "concent": 3650,
      "proced": 3651,
      "ament": 3652,
      "sil": 3653,
      "apped": 3654,
      "ulf": 3655,
      "ifts": 3656,
      "hood": 3657,
      "hospital": 3658,
      "scow": 3659,
      "Security": 3660,
      "dividends": 3661,
      "virt": 3662,
      "Phill": 3663,
      "burgh": 3664,
      "negotiations": 3665,
      "chemicals": 3666,
      "fairly": 3667,
      "Edward": 3668,
      "establish": 3669,
      "Contin": 3670,
      "items": 3671,
      "principal": 3672,
      "icians": 3673,
      "aggressive": 3674,
      "retirement": 3675,
      "effects": 3676,
      "heavily": 3677,
      "DS": 3678,
      "ION": 3679,
      "dut": 3680,
      "lvan": 3681,
      "municipal": 3682,
      "pict": 3683,
      "sou": 3684,
      "source": 3685,
      "reorganization": 3686,
      "represents": 3687,
      "atic": 3688,
      "station": 3689,
      "stations": 3690,
      "oman": 3691,
      "unched": 3692,
      "uncertaint": 3693,
      "expan": 3694,
      "conom": 3695,
      "conced": 3696,
      "shut": 3697,
      "moder": 3698,
      "Instead": 3699,
      "ilty": 3700,
      "grade": 3701,
      "bull": 3702,
      "mond": 3703,
      "ishi": 3704,
      "minutes": 3705,
      "bruary": 3706,
      "transportation": 3707,
      "values": 3708,
      "guilty": 3709,
      "headed": 3710,
      "buildings": 3711,
      "Only": 3712,
      "totaled": 3713,
      "believed": 3714,
      "carrier": 3715,
      "Carol": 3716,
      "domin": 3717,
      "balance": 3718,
      "client": 3719,
      "responsib": 3720,
      "Administration": 3721,
      "February": 3722,
      "requirements": 3723,
      "determin": 3724,
      "released": 3725,
      "typically": 3726,
      "treatment": 3727,
      "Charles": 3728,
      "temporary": 3729,
      "opportunity": 3730,
      "farmers": 3731,
      "lvania": 3732,
      "Ben": 3733,
      "Fred": 3734,
      "Mary": 3735,
      "Mix": 3736,
      "Sim": 3737,
      "Vo": 3738,
      "don": 3739,
      "die": 3740,
      "ns": 3741,
      "obl": 3742,
      "paren": 3743,
      "sometimes": 3744,
      "inv": 3745,
      "era": 3746,
      "rote": 3747,
      "unist": 3748,
      "exam": 3749,
      "acting": 3750,
      "eline": 3751,
      "opposition": 3752,
      "Those": 3753,
      "parties": 3754,
      "someone": 3755,
      "complex": 3756,
      "nowled": 3757,
      "bask": 3758,
      "drive": 3759,
      "extreme": 3760,
      "region": 3761,
      "regular": 3762,
      "observ": 3763,
      "Moscow": 3764,
      "transfer": 3765,
      "aimed": 3766,
      "purchased": 3767,
      "sylvania": 3768,
      "scand": 3769,
      "facility": 3770,
      "Steel": 3771,
      "customer": 3772,
      "difference": 3773,
      "internal": 3774,
      "weakness": 3775,
      "couple": 3776,
      "install": 3777,
      "experts": 3778,
      "standards": 3779,
      "details": 3780,
      "strength": 3781,
      "satis": 3782,
      "Pennsylvania": 3783,
      "scale": 3784,
      "relationship": 3785,
      "Phillips": 3786,
      "Cur": 3787,
      "Econom": 3788,
      "Gulf": 3789,
      "Krenz": 3790,
      "Miss": 3791,
      "Publ": 3792,
      "Wa": 3793,
      "ey": 3794,
      "eye": 3795,
      "ients": 3796,
      "moun": 3797,
      "rust": 3798,
      "sources": 3799,
      "uct": 3800,
      "wall": 3801,
      "wrote": 3802,
      "repe": 3803,
      "stim": 3804,
      "stress": 3805,
      "ites": 3806,
      "asp": 3807,
      "load": 3808,
      "imm": 3809,
      "safe": 3810,
      "coal": 3811,
      "Third": 3812,
      "firmed": 3813,
      "noon": 3814,
      "monthly": 3815,
      "anyone": 3816,
      "holdings": 3817,
      "understand": 3818,
      "subishi": 3819,
      "police": 3820,
      "Develo": 3821,
      "phen": 3822,
      "object": 3823,
      "condition": 3824,
      "spot": 3825,
      "damaged": 3826,
      "employee": 3827,
      "waiting": 3828,
      "trouble": 3829,
      "copper": 3830,
      "increasingly": 3831,
      "ratings": 3832,
      "Mitsubishi": 3833,
      "Goldman": 3834,
      "electronics": 3835,
      "Offic": 3836,
      "minority": 3837,
      "County": 3838,
      "climbed": 3839,
      "restrictions": 3840,
      "About": 3841,
      "prepared": 3842,
      "England": 3843,
      "reflects": 3844,
      "guidelines": 3845,
      "Navigation": 3846,
      "Ha": 3847,
      "Hou": 3848,
      "Here": 3849,
      "My": 3850,
      "OP": 3851,
      "Our": 3852,
      "Over": 3853,
      "Oak": 3854,
      "Paul": 3855,
      "Paine": 3856,
      "Times": 3857,
      "ded": 3858,
      "dro": 3859,
      "lay": 3860,
      "lending": 3861,
      "wond": 3862,
      "select": 3863,
      "roy": 3864,
      "administr": 3865,
      "convent": 3866,
      "amid": 3867,
      "wel": 3868,
      "peau": 3869,
      "losing": 3870,
      "operate": 3871,
      "owner": 3872,
      "provisions": 3873,
      "enced": 3874,
      "producer": 3875,
      "producing": 3876,
      "relations": 3877,
      "showing": 3878,
      "iliz": 3879,
      "developing": 3880,
      "everyone": 3881,
      "launched": 3882,
      "certainly": 3883,
      "controls": 3884,
      "manufacturers": 3885,
      "books": 3886,
      "margin": 3887,
      "Campeau": 3888,
      "trucks": 3889,
      "predicted": 3890,
      "Webber": 3891,
      "pretty": 3892,
      "mixed": 3893,
      "constitutional": 3894,
      "Virgin": 3895,
      "expansion": 3896,
      "PaineWebber": 3897,
      "Bl": 3898,
      "Burn": 3899,
      "Cent": 3900,
      "IT": 3901,
      "Lt": 3902,
      "Life": 3903,
      "Og": 3904,
      "Rec": 3905,
      "Wal": 3906,
      "bby": 3907,
      "bul": 3908,
      "gs": 3909,
      "ibe": 3910,
      "tit": 3911,
      "wal": 3912,
      "xon": 3913,
      "zz": 3914,
      "etics": 3915,
      "rock": 3916,
      "century": 3917,
      "central": 3918,
      "tried": 3919,
      "quite": 3920,
      "withdraw": 3921,
      "soph": 3922,
      "ota": 3923,
      "grand": 3924,
      "istics": 3925,
      "acknowled": 3926,
      "achs": 3927,
      "annually": 3928,
      "bridge": 3929,
      "community": 3930,
      "istry": 3931,
      "issions": 3932,
      "debate": 3933,
      "divers": 3934,
      "proposals": 3935,
      "played": 3936,
      "Broad": 3937,
      "Soviets": 3938,
      "healthy": 3939,
      "ordinary": 3940,
      "Motors": 3941,
      "improvement": 3942,
      "lux": 3943,
      "criminal": 3944,
      "victims": 3945,
      "Republicans": 3946,
      "Office": 3947,
      "Mixte": 3948,
      "Houston": 3949,
      "Ltd": 3950,
      "Bra": 3951,
      "Cred": 3952,
      "Every": 3953,
      "Fore": 3954,
      "IC": 3955,
      "Kr": 3956,
      "La": 3957,
      "POR": 3958,
      "Rus": 3959,
      "Wil": 3960,
      "crop": 3961,
      "frequ": 3962,
      "mess": 3963,
      "pending": 3964,
      "rid": 3965,
      "rank": 3966,
      "sens": 3967,
      "sque": 3968,
      "theast": 3969,
      "theless": 3970,
      "orp": 3971,
      "tool": 3972,
      "lling": 3973,
      "icts": 3974,
      "etic": 3975,
      "igger": 3976,
      "ague": 3977,
      "consolid": 3978,
      "mob": 3979,
      "quiet": 3980,
      "listed": 3981,
      "living": 3982,
      "user": 3983,
      "apart": 3984,
      "eighties": 3985,
      "thousands": 3986,
      "pretax": 3987,
      "ashion": 3988,
      "pping": 3989,
      "mainfr": 3990,
      "Trade": 3991,
      "Manville": 3992,
      "powerful": 3993,
      "automotive": 3994,
      "processing": 3995,
      "responsible": 3996,
      "supplies": 3997,
      "grew": 3998,
      "rooms": 3999,
      "stopped": 4000,
      "vari": 4001,
      "words": 4002,
      "scientists": 4003,
      "Morris": 4004,
      "defendants": 4005,
      "exercise": 4006,
      "Dall": 4007,
      "Good": 4008,
      "Mill": 4009,
      "Sam": 4010,
      "Sachs": 4011,
      "UD": 4012,
      "hot": 4013,
      "ij": 4014,
      "none": 4015,
      "pting": 4016,
      "rail": 4017,
      "tt": 4018,
      "til": 4019,
      "task": 4020,
      "usive": 4021,
      "oring": 4022,
      "heat": 4023,
      "ete": 4024,
      "true": 4025,
      "ninth": 4026,
      "strugg": 4027,
      "ivity": 4028,
      "ancy": 4029,
      "surge": 4030,
      "drink": 4031,
      "regional": 4032,
      "ventures": 4033,
      "Alan": 4034,
      "numbers": 4035,
      "ibed": 4036,
      "remained": 4037,
      "Manufact": 4038,
      "follows": 4039,
      "everything": 4040,
      "piece": 4041,
      "involve": 4042,
      "Party": 4043,
      "slowing": 4044,
      "Max": 4045,
      "morrow": 4046,
      "Chap": 4047,
      "consulting": 4048,
      "schools": 4049,
      "eventually": 4050,
      "surprising": 4051,
      "film": 4052,
      "Control": 4053,
      "underwriters": 4054,
      "distribution": 4055,
      "global": 4056,
      "Korea": 4057,
      "nuclear": 4058,
      "Savings": 4059,
      "Michigan": 4060,
      "Credit": 4061,
      "COR": 4062,
      "Gar": 4063,
      "Hill": 4064,
      "Harr": 4065,
      "Number": 4066,
      "Ru": 4067,
      "ST": 4068,
      "Sir": 4069,
      "cable": 4070,
      "kid": 4071,
      "pip": 4072,
      "rac": 4073,
      "slip": 4074,
      "wers": 4075,
      "inch": 4076,
      "inary": 4077,
      "anim": 4078,
      "rect": 4079,
      "relief": 4080,
      "stick": 4081,
      "tomorrow": 4082,
      "unusual": 4083,
      "intell": 4084,
      "exact": 4085,
      "conclud": 4086,
      "trigger": 4087,
      "hundreds": 4088,
      "haul": 4089,
      "ously": 4090,
      "bust": 4091,
      "Three": 4092,
      "affic": 4093,
      "ideo": 4094,
      "aircraft": 4095,
      "surged": 4096,
      "States": 4097,
      "election": 4098,
      "contrast": 4099,
      "argu": 4100,
      "putting": 4101,
      "sler": 4102,
      "emphas": 4103,
      "signs": 4104,
      "Lee": 4105,
      "names": 4106,
      "Southern": 4107,
      "residents": 4108,
      "falling": 4109,
      "nolog": 4110,
      "Minister": 4111,
      "voted": 4112,
      "significantly": 4113,
      "baseball": 4114,
      "recovery": 4115,
      "technical": 4116,
      "roughly": 4117,
      "segment": 4118,
      "felt": 4119,
      "demonstr": 4120,
      "subordinated": 4121,
      "advantage": 4122,
      "Virginia": 4123,
      "Lam": 4124,
      "ME": 4125,
      "Power": 4126,
      "SCI": 4127,
      "blo": 4128,
      "eth": 4129,
      "mar": 4130,
      "park": 4131,
      "wast": 4132,
      "arately": 4133,
      "leaving": 4134,
      "ado": 4135,
      "ura": 4136,
      "sures": 4137,
      "prospect": 4138,
      "tru": 4139,
      "training": 4140,
      "aband": 4141,
      "ateg": 4142,
      "deput": 4143,
      "olf": 4144,
      "Though": 4145,
      "cris": 4146,
      "rence": 4147,
      "boom": 4148,
      "aves": 4149,
      "bankers": 4150,
      "Exxon": 4151,
      "caut": 4152,
      "Separately": 4153,
      "concerned": 4154,
      "advance": 4155,
      "complaint": 4156,
      "accounting": 4157,
      "sym": 4158,
      "faces": 4159,
      "seemed": 4160,
      "generation": 4161,
      "Paris": 4162,
      "finding": 4163,
      "boosted": 4164,
      "happen": 4165,
      "voters": 4166,
      "inois": 4167,
      "combined": 4168,
      "Earlier": 4169,
      "primarily": 4170,
      "models": 4171,
      "college": 4172,
      "commodity": 4173,
      "Philip": 4174,
      "original": 4175,
      "Traders": 4176,
      "Illinois": 4177,
      "Entertainment": 4178,
      "Joseph": 4179,
      "maturity": 4180,
      "Volume": 4181,
      "language": 4182,
      "PORAT": 4183,
      "Dallas": 4184,
      "CORPORAT": 4185,
      "Bal": 4186,
      "Def": 4187,
      "Ke": 4188,
      "Mortgage": 4189,
      "aut": 4190,
      "dic": 4191,
      "dden": 4192,
      "fashion": 4193,
      "og": 4194,
      "oto": 4195,
      "ored": 4196,
      "rout": 4197,
      "san": 4198,
      "oned": 4199,
      "oration": 4200,
      "omin": 4201,
      "sees": 4202,
      "secu": 4203,
      "etter": 4204,
      "acter": 4205,
      "erson": 4206,
      "bear": 4207,
      "sus": 4208,
      "verse": 4209,
      "excess": 4210,
      "shift": 4211,
      "liability": 4212,
      "output": 4213,
      "essential": 4214,
      "hase": 4215,
      "emic": 4216,
      "opinion": 4217,
      "seventh": 4218,
      "spin": 4219,
      "monetary": 4220,
      "brief": 4221,
      "Stand": 4222,
      "address": 4223,
      "adequ": 4224,
      "Deal": 4225,
      "valu": 4226,
      "furt": 4227,
      "ucky": 4228,
      "keeping": 4229,
      "electric": 4230,
      "authority": 4231,
      "middle": 4232,
      "initi": 4233,
      "confidence": 4234,
      "meanwhile": 4235,
      "Frankfurt": 4236,
      "plunged": 4237,
      "prosecutors": 4238,
      "influence": 4239,
      "Jersey": 4240,
      "dispute": 4241,
      "luxury": 4242,
      "Chapter": 4243,
      "secured": 4244,
      "Great": 4245,
      "Oil": 4246,
      "Pent": 4247,
      "RE": 4248,
      "cross": 4249,
      "citing": 4250,
      "dict": 4251,
      "gone": 4252,
      "ky": 4253,
      "native": 4254,
      "overs": 4255,
      "pment": 4256,
      "pace": 4257,
      "rival": 4258,
      "thin": 4259,
      "rein": 4260,
      "renew": 4261,
      "stream": 4262,
      "tom": 4263,
      "hearing": 4264,
      "accord": 4265,
      "utility": 4266,
      "arely": 4267,
      "centers": 4268,
      "trillion": 4269,
      "traffic": 4270,
      "amend": 4271,
      "shown": 4272,
      "resources": 4273,
      "crude": 4274,
      "corporations": 4275,
      "finished": 4276,
      "decide": 4277,
      "afternoon": 4278,
      "lawmakers": 4279,
      "thrifts": 4280,
      "direction": 4281,
      "iana": 4282,
      "throughout": 4283,
      "adviser": 4284,
      "Beij": 4285,
      "cycl": 4286,
      "appeared": 4287,
      "seventies": 4288,
      "atchi": 4289,
      "advertisers": 4290,
      "forcement": 4291,
      "location": 4292,
      "histor": 4293,
      "strategic": 4294,
      "affected": 4295,
      "primary": 4296,
      "accused": 4297,
      "vehicle": 4298,
      "Saatchi": 4299,
      "insurers": 4300,
      "Foreign": 4301,
      "squee": 4302,
      "Standard": 4303,
      "Pentagon": 4304,
      "Beijing": 4305,
      "Ag": 4306,
      "Cit": 4307,
      "Em": 4308,
      "Ham": 4309,
      "apo": 4310,
      "egg": 4311,
      "fine": 4312,
      "ki": 4313,
      "rig": 4314,
      "tight": 4315,
      "err": 4316,
      "lla": 4317,
      "ett": 4318,
      "Their": 4319,
      "twice": 4320,
      "save": 4321,
      "lif": 4322,
      "iple": 4323,
      "awa": 4324,
      "Common": 4325,
      "compens": 4326,
      "reasons": 4327,
      "minister": 4328,
      "flight": 4329,
      "sides": 4330,
      "genes": 4331,
      "volution": 4332,
      "Roy": 4333,
      "fewer": 4334,
      "joined": 4335,
      "declining": 4336,
      "clearly": 4337,
      "mocracy": 4338,
      "serve": 4339,
      "sixteenths": 4340,
      "ordered": 4341,
      "charged": 4342,
      "authorities": 4343,
      "practices": 4344,
      "troubled": 4345,
      "publishing": 4346,
      "ratio": 4347,
      "discussions": 4348,
      "character": 4349,
      "vehicles": 4350,
      "fortun": 4351,
      "Technology": 4352,
      "syndic": 4353,
      "Israel": 4354,
      "doubt": 4355,
      "worried": 4356,
      "icondu": 4357,
      "virtually": 4358,
      "Continental": 4359,
      "uncertainty": 4360,
      "crisis": 4361,
      "Back": 4362,
      "Det": 4363,
      "Er": 4364,
      "Fut": 4365,
      "Gi": 4366,
      "HUD": 4367,
      "King": 4368,
      "Nik": 4369,
      "Pre": 4370,
      "RAT": 4371,
      "ique": 4372,
      "mic": 4373,
      "mere": 4374,
      "ov": 4375,
      "ote": 4376,
      "page": 4377,
      "atin": 4378,
      "sta": 4379,
      "adium": 4380,
      "file": 4381,
      "iron": 4382,
      "arsh": 4383,
      "sudden": 4384,
      "abroad": 4385,
      "aking": 4386,
      "opposed": 4387,
      "antit": 4388,
      "answer": 4389,
      "positive": 4390,
      "pharmaceutical": 4391,
      "worry": 4392,
      "spects": 4393,
      "bigger": 4394,
      "mainly": 4395,
      "caution": 4396,
      "equival": 4397,
      "cert": 4398,
      "dealer": 4399,
      "litigation": 4400,
      "studies": 4401,
      "scen": 4402,
      "starting": 4403,
      "Produ": 4404,
      "Ministry": 4405,
      "patients": 4406,
      "logical": 4407,
      "families": 4408,
      "Australian": 4409,
      "established": 4410,
      "substantially": 4411,
      "Transportation": 4412,
      "immediate": 4413,
      "movies": 4414,
      "deposits": 4415,
      "Holdings": 4416,
      "McCaw": 4417,
      "documents": 4418,
      "parents": 4419,
      "extremely": 4420,
      "scandal": 4421,
      "Burnham": 4422,
      "Each": 4423,
      "Gl": 4424,
      "Nek": 4425,
      "Sing": 4426,
      "Tom": 4427,
      "burn": 4428,
      "mortg": 4429,
      "sco": 4430,
      "wear": 4431,
      "rebound": 4432,
      "seat": 4433,
      "unities": 4434,
      "adop": 4435,
      "poly": 4436,
      "dow": 4437,
      "uts": 4438,
      "intended": 4439,
      "logy": 4440,
      "lobby": 4441,
      "expo": 4442,
      "confirmed": 4443,
      "whom": 4444,
      "shire": 4445,
      "owed": 4446,
      "outlook": 4447,
      "soared": 4448,
      "sixth": 4449,
      "weap": 4450,
      "nell": 4451,
      "explo": 4452,
      "meant": 4453,
      "fears": 4454,
      "decisions": 4455,
      "Chry": 4456,
      "weekend": 4457,
      "sells": 4458,
      "earns": 4459,
      "Report": 4460,
      "signal": 4461,
      "managed": 4462,
      "Communist": 4463,
      "pression": 4464,
      "thinks": 4465,
      "faced": 4466,
      "Mont": 4467,
      "Today": 4468,
      "written": 4469,
      "judges": 4470,
      "negotiating": 4471,
      "association": 4472,
      "release": 4473,
      "Africa": 4474,
      "Terms": 4475,
      "circum": 4476,
      "oosa": 4477,
      "neighbor": 4478,
      "determined": 4479,
      "Officials": 4480,
      "deputy": 4481,
      "Dealers": 4482,
      "Nekoosa": 4483,
      "Chrysler": 4484,
      "Hew": 4485,
      "Kent": 4486,
      "Kell": 4487,
      "Like": 4488,
      "Lang": 4489,
      "Rub": 4490,
      "cies": 4491,
      "gross": 4492,
      "ians": 4493,
      "mist": 4494,
      "pill": 4495,
      "ustr": 4496,
      "weight": 4497,
      "wind": 4498,
      "wise": 4499,
      "wife": 4500,
      "thus": 4501,
      "llor": 4502,
      "heim": 4503,
      "ager": 4504,
      "ables": 4505,
      "resc": 4506,
      "tsburgh": 4507,
      "ilvy": 4508,
      "aum": 4509,
      "monitor": 4510,
      "poses": 4511,
      "udential": 4512,
      "investing": 4513,
      "goal": 4514,
      "finally": 4515,
      "izes": 4516,
      "assess": 4517,
      "drives": 4518,
      "mayor": 4519,
      "Companies": 4520,
      "Well": 4521,
      "backs": 4522,
      "arrange": 4523,
      "factory": 4524,
      "Prime": 4525,
      "Prudential": 4526,
      "meetings": 4527,
      "Merc": 4528,
      "covering": 4529,
      "membership": 4530,
      "swings": 4531,
      "wait": 4532,
      "jointly": 4533,
      "leadership": 4534,
      "brands": 4535,
      "fresh": 4536,
      "talking": 4537,
      "succeeds": 4538,
      "sufficient": 4539,
      "revised": 4540,
      "consultants": 4541,
      "appropriations": 4542,
      "merchand": 4543,
      "warrants": 4544,
      "Pittsburgh": 4545,
      "Ogilvy": 4546,
      "cautious": 4547,
      "Futures": 4548,
      "Hewlett": 4549,
      "Dis": 4550,
      "Hel": 4551,
      "Nic": 4552,
      "Que": 4553,
      "Sand": 4554,
      "bing": 4555,
      "cig": 4556,
      "cities": 4557,
      "crow": 4558,
      "ipan": 4559,
      "ls": 4560,
      "oth": 4561,
      "ses": 4562,
      "wan": 4563,
      "iny": 4564,
      "reaction": 4565,
      "ena": 4566,
      "stances": 4567,
      "deep": 4568,
      "democracy": 4569,
      "gested": 4570,
      "Thus": 4571,
      "disk": 4572,
      "counsel": 4573,
      "mining": 4574,
      "Why": 4575,
      "asser": 4576,
      "underlying": 4577,
      "argue": 4578,
      "guard": 4579,
      "advoc": 4580,
      "asking": 4581,
      "severe": 4582,
      "damages": 4583,
      "Petroleum": 4584,
      "pricing": 4585,
      "Phil": 4586,
      "Industry": 4587,
      "suggested": 4588,
      "cuit": 4589,
      "attorneys": 4590,
      "suggests": 4591,
      "tender": 4592,
      "proceeds": 4593,
      "conduct": 4594,
      "anticipated": 4595,
      "itzer": 4596,
      "devices": 4597,
      "declared": 4598,
      "Machines": 4599,
      "Telerate": 4600,
      "Development": 4601,
      "Oakland": 4602,
      "Lambert": 4603,
      "antitrust": 4604,
      "mortgages": 4605,
      "AD": 4606,
      "AI": 4607,
      "Breed": 4608,
      "Camp": 4609,
      "Center": 4610,
      "Cath": 4611,
      "Ds": 4612,
      "Dou": 4613,
      "Distr": 4614,
      "Ener": 4615,
      "Lin": 4616,
      "Mat": 4617,
      "Ty": 4618,
      "Tenn": 4619,
      "bread": 4620,
      "eing": 4621,
      "fle": 4622,
      "flex": 4623,
      "jur": 4624,
      "wit": 4625,
      "insured": 4626,
      "enh": 4627,
      "ato": 4628,
      "section": 4629,
      "ache": 4630,
      "conver": 4631,
      "consecut": 4632,
      "ceiling": 4633,
      "shap": 4634,
      "millions": 4635,
      "coverage": 4636,
      "umn": 4637,
      "ipt": 4638,
      "ipped": 4639,
      "older": 4640,
      "disci": 4641,
      "disclose": 4642,
      "prene": 4643,
      "operates": 4644,
      "maxim": 4645,
      "elections": 4646,
      "Until": 4647,
      "flag": 4648,
      "phys": 4649,
      "formed": 4650,
      "obvious": 4651,
      "puts": 4652,
      "slide": 4653,
      "Community": 4654,
      "movement": 4655,
      "Price": 4656,
      "shipping": 4657,
      "refused": 4658,
      "Stephen": 4659,
      "Mae": 4660,
      "Major": 4661,
      "audience": 4662,
      "easily": 4663,
      "patent": 4664,
      "critical": 4665,
      "Holly": 4666,
      "Spec": 4667,
      "copy": 4668,
      "associated": 4669,
      "Poor": 4670,
      "guarantee": 4671,
      "education": 4672,
      "iffs": 4673,
      "recommend": 4674,
      "liquidity": 4675,
      "comparable": 4676,
      "bureaucr": 4677,
      "Packard": 4678,
      "instruments": 4679,
      "picture": 4680,
      "conventional": 4681,
      "Defense": 4682,
      "consecutive": 4683,
      "discipl": 4684,
      "Bill": 4685,
      "Cs": 4686,
      "Care": 4687,
      "CDs": 4688,
      "Far": 4689,
      "Farm": 4690,
      "Mag": 4691,
      "Nix": 4692,
      "Sy": 4693,
      "Turn": 4694,
      "aver": 4695,
      "barg": 4696,
      "cup": 4697,
      "categ": 4698,
      "dedu": 4699,
      "fat": 4700,
      "iat": 4701,
      "mally": 4702,
      "mass": 4703,
      "rom": 4704,
      "erous": 4705,
      "reprene": 4706,
      "oul": 4707,
      "entreprene": 4708,
      "assem": 4709,
      "adel": 4710,
      "utch": 4711,
      "agues": 4712,
      "sust": 4713,
      "concept": 4714,
      "amed": 4715,
      "amble": 4716,
      "cold": 4717,
      "grain": 4718,
      "display": 4719,
      "taxpay": 4720,
      "slash": 4721,
      "ultural": 4722,
      "student": 4723,
      "supported": 4724,
      "participan": 4725,
      "claimed": 4726,
      "privately": 4727,
      "Color": 4728,
      "glas": 4729,
      "attract": 4730,
      "visit": 4731,
      "ING": 4732,
      "Lawrence": 4733,
      "appointed": 4734,
      "blacks": 4735,
      "simple": 4736,
      "troubles": 4737,
      "freight": 4738,
      "Atlantic": 4739,
      "assistant": 4740,
      "hostile": 4741,
      "collapse": 4742,
      "Scott": 4743,
      "Drug": 4744,
      "candidates": 4745,
      "music": 4746,
      "basket": 4747,
      "Broadcasting": 4748,
      "Braz": 4749,
      "blood": 4750,
      "certific": 4751,
      "Hollywood": 4752,
      "Ap": 4753,
      "Asia": 4754,
      "Hart": 4755,
      "Sat": 4756,
      "Sund": 4757,
      "Ver": 4758,
      "Young": 4759,
      "bly": 4760,
      "cit": 4761,
      "coff": 4762,
      "danger": 4763,
      "nations": 4764,
      "rack": 4765,
      "race": 4766,
      "shel": 4767,
      "wild": 4768,
      "stab": 4769,
      "iture": 4770,
      "itude": 4771,
      "seed": 4772,
      "iger": 4773,
      "aced": 4774,
      "ada": 4775,
      "dozen": 4776,
      "urged": 4777,
      "beat": 4778,
      "exten": 4779,
      "expressed": 4780,
      "liber": 4781,
      "prime": 4782,
      "cks": 4783,
      "oles": 4784,
      "upon": 4785,
      "stood": 4786,
      "afford": 4787,
      "crack": 4788,
      "discovered": 4789,
      "becoming": 4790,
      "Italy": 4791,
      "efficient": 4792,
      "polis": 4793,
      "archit": 4794,
      "chell": 4795,
      "Coast": 4796,
      "views": 4797,
      "apply": 4798,
      "society": 4799,
      "looks": 4800,
      "Engl": 4801,
      "stronger": 4802,
      "voice": 4803,
      "appeals": 4804,
      "affairs": 4805,
      "metals": 4806,
      "entered": 4807,
      "failure": 4808,
      "window": 4809,
      "representing": 4810,
      "critics": 4811,
      "reflected": 4812,
      "Greens": 4813,
      "Switzer": 4814,
      "Mitchell": 4815,
      "volatile": 4816,
      "personnel": 4817,
      "professor": 4818,
      "professional": 4819,
      "Telephone": 4820,
      "proceedings": 4821,
      "Council": 4822,
      "temporarily": 4823,
      "filled": 4824,
      "Atlanta": 4825,
      "editorial": 4826,
      "challenge": 4827,
      "Apple": 4828,
      "benchmark": 4829,
      "Brooks": 4830,
      "Yeargin": 4831,
      "Carolina": 4832,
      "Manufacturers": 4833,
      "nologies": 4834,
      "Switzerland": 4835,
      "Blo": 4836,
      "Four": 4837,
      "Ken": 4838,
      "Mur": 4839,
      "Ray": 4840,
      "THE": 4841,
      "Viet": 4842,
      "batter": 4843,
      "cance": 4844,
      "ders": 4845,
      "fare": 4846,
      "gard": 4847,
      "pson": 4848,
      "ri": 4849,
      "uff": 4850,
      "vard": 4851,
      "wake": 4852,
      "throw": 4853,
      "enorm": 4854,
      "stage": 4855,
      "aragu": 4856,
      "une": 4857,
      "unve": 4858,
      "aco": 4859,
      "intent": 4860,
      "progress": 4861,
      "mention": 4862,
      "cells": 4863,
      "shot": 4864,
      "quir": 4865,
      "Intel": 4866,
      "manage": 4867,
      "cosm": 4868,
      "ivals": 4869,
      "ola": 4870,
      "spur": 4871,
      "fold": 4872,
      "neither": 4873,
      "changing": 4874,
      "pread": 4875,
      "contends": 4876,
      "izations": 4877,
      "brid": 4878,
      "subscr": 4879,
      "offerings": 4880,
      "lawsuits": 4881,
      "atters": 4882,
      "reporting": 4883,
      "reporters": 4884,
      "photo": 4885,
      "worst": 4886,
      "factor": 4887,
      "iants": 4888,
      "published": 4889,
      "reluct": 4890,
      "stands": 4891,
      "courts": 4892,
      "requires": 4893,
      "capitalization": 4894,
      "Art": 4895,
      "letters": 4896,
      "creating": 4897,
      "agreements": 4898,
      "helping": 4899,
      "politicians": 4900,
      "returned": 4901,
      "limits": 4902,
      "committed": 4903,
      "specialty": 4904,
      "Toy": 4905,
      "telecommunications": 4906,
      "Sea": 4907,
      "founder": 4908,
      "denied": 4909,
      "Finance": 4910,
      "glass": 4911,
      "ski": 4912,
      "happened": 4913,
      "initially": 4914,
      "resignation": 4915,
      "Class": 4916,
      "publisher": 4917,
      "places": 4918,
      "types": 4919,
      "shopping": 4920,
      "deposit": 4921,
      "suspended": 4922,
      "extraordinary": 4923,
      "bolster": 4924,
      "awarded": 4925,
      "exclusive": 4926,
      "guarantees": 4927,
      "silver": 4928,
      "responsibility": 4929,
      "wonder": 4930,
      "Central": 4931,
      "exposure": 4932,
      "circumstances": 4933,
      "Nicaragu": 4934,
      "Breeden": 4935,
      "Energy": 4936,
      "Bear": 4937,
      "Banc": 4938,
      "Dai": 4939,
      "Han": 4940,
      "Hung": 4941,
      "Li": 4942,
      "Mes": 4943,
      "Mess": 4944,
      "Mart": 4945,
      "Pat": 4946,
      "Source": 4947,
      "catch": 4948,
      "faster": 4949,
      "gent": 4950,
      "gate": 4951,
      "grown": 4952,
      "mill": 4953,
      "matters": 4954,
      "ny": 4955,
      "pun": 4956,
      "pul": 4957,
      "site": 4958,
      "table": 4959,
      "uli": 4960,
      "wides": 4961,
      "indeed": 4962,
      "reput": 4963,
      "resume": 4964,
      "enjo": 4965,
      "orage": 4966,
      "ature": 4967,
      "stable": 4968,
      "edy": 4969,
      "ingly": 4970,
      "ider": 4971,
      "acle": 4972,
      "urban": 4973,
      "perfect": 4974,
      "protest": 4975,
      "prospects": 4976,
      "lives": 4977,
      "prison": 4978,
      "iles": 4979,
      "dum": 4980,
      "cool": 4981,
      "eless": 4982,
      "spark": 4983,
      "anks": 4984,
      "erald": 4985,
      "tenth": 4986,
      "Star": 4987,
      "weekly": 4988,
      "linked": 4989,
      "From": 4990,
      "Boeing": 4991,
      "phia": 4992,
      "register": 4993,
      "served": 4994,
      "reading": 4995,
      "worse": 4996,
      "iction": 4997,
      "Costa": 4998,
      "inside": 4999,
      "structural": 5000,
      "handle": 5001,
      "mature": 5002,
      "player": 5003,
      "Once": 5004,
      "facing": 5005,
      "commitments": 5006,
      "fallen": 5007,
      "Steven": 5008,
      "regulations": 5009,
      "natives": 5010,
      "expert": 5011,
      "confident": 5012,
      "Thompson": 5013,
      "semicondu": 5014,
      "Christmas": 5015,
      "triple": 5016,
      "accepted": 5017,
      "suffered": 5018,
      "begun": 5019,
      "friendly": 5020,
      "square": 5021,
      "ultimately": 5022,
      "plastic": 5023,
      "administrative": 5024,
      "slipped": 5025,
      "equivalent": 5026,
      "Quebec": 5027,
      "cigare": 5028,
      "Philadel": 5029,
      "Campbell": 5030,
      "District": 5031,
      "English": 5032,
      "Vietnam": 5033,
      "enormous": 5034,
      "widespread": 5035,
      "Philadelphia": 5036,
      "EN": 5037,
      "Fre": 5038,
      "Gill": 5039,
      "Hon": 5040,
      "Ka": 5041,
      "Navy": 5042,
      "OF": 5043,
      "Phel": 5044,
      "Sol": 5045,
      "Sher": 5046,
      "Ve": 5047,
      "bann": 5048,
      "journal": 5049,
      "pts": 5050,
      "sch": 5051,
      "tou": 5052,
      "tic": 5053,
      "tail": 5054,
      "tied": 5055,
      "wat": 5056,
      "wing": 5057,
      "yer": 5058,
      "inno": 5059,
      "orts": 5060,
      "edge": 5061,
      "inger": 5062,
      "assume": 5063,
      "iced": 5064,
      "icial": 5065,
      "sex": 5066,
      "unlike": 5067,
      "fired": 5068,
      "besto": 5069,
      "consent": 5070,
      "eway": 5071,
      "appreci": 5072,
      "astro": 5073,
      "optim": 5074,
      "grant": 5075,
      "newly": 5076,
      "identified": 5077,
      "buyer": 5078,
      "operator": 5079,
      "setting": 5080,
      "arry": 5081,
      "argued": 5082,
      "paint": 5083,
      "costly": 5084,
      "specified": 5085,
      "nett": 5086,
      "acquiring": 5087,
      "cheap": 5088,
      "lands": 5089,
      "knows": 5090,
      "secondary": 5091,
      "supposed": 5092,
      "turning": 5093,
      "seeing": 5094,
      "studio": 5095,
      "hardt": 5096,
      "specialists": 5097,
      "manufacturer": 5098,
      "attractive": 5099,
      "easier": 5100,
      "retailers": 5101,
      "illegal": 5102,
      "jump": 5103,
      "surprised": 5104,
      "pushed": 5105,
      "strategies": 5106,
      "Electron": 5107,
      "colleagues": 5108,
      "uggish": 5109,
      "assistance": 5110,
      "psycho": 5111,
      "collapsed": 5112,
      "Super": 5113,
      "terror": 5114,
      "eliminate": 5115,
      "possibility": 5116,
      "rumors": 5117,
      "pursue": 5118,
      "controversial": 5119,
      "restaurant": 5120,
      "moderate": 5121,
      "Public": 5122,
      "concluded": 5123,
      "triggered": 5124,
      "apore": 5125,
      "Singapore": 5126,
      "Nixon": 5127,
      "coffee": 5128,
      "Phelan": 5129,
      "bestos": 5130,
      "Ak": 5131,
      "Ba": 5132,
      "Bel": 5133,
      "Eag": 5134,
      "HO": 5135,
      "Jac": 5136,
      "Mem": 5137,
      "Old": 5138,
      "Roman": 5139,
      "Sever": 5140,
      "School": 5141,
      "Tre": 5142,
      "Tra": 5143,
      "TER": 5144,
      "bail": 5145,
      "cused": 5146,
      "culture": 5147,
      "dig": 5148,
      "died": 5149,
      "dale": 5150,
      "fol": 5151,
      "hus": 5152,
      "mur": 5153,
      "nom": 5154,
      "nard": 5155,
      "nings": 5156,
      "nerv": 5157,
      "vig": 5158,
      "vans": 5159,
      "youn": 5160,
      "stance": 5161,
      "itsu": 5162,
      "itable": 5163,
      "llium": 5164,
      "asbestos": 5165,
      "omes": 5166,
      "heard": 5167,
      "lement": 5168,
      "roit": 5169,
      "forward": 5170,
      "utter": 5171,
      "compromise": 5172,
      "sumed": 5173,
      "confirm": 5174,
      "rede": 5175,
      "wholes": 5176,
      "trim": 5177,
      "porter": 5178,
      "dem": 5179,
      "mann": 5180,
      "empt": 5181,
      "marked": 5182,
      "elabor": 5183,
      "ansas": 5184,
      "invested": 5185,
      "prelim": 5186,
      "basic": 5187,
      "downturn": 5188,
      "pulled": 5189,
      "extent": 5190,
      "Real": 5191,
      "attend": 5192,
      "formal": 5193,
      "calling": 5194,
      "Contain": 5195,
      "Soci": 5196,
      "purpose": 5197,
      "sels": 5198,
      "realize": 5199,
      "senators": 5200,
      "lowered": 5201,
      "Grand": 5202,
      "respect": 5203,
      "lets": 5204,
      "purchasing": 5205,
      "reedom": 5206,
      "Beth": 5207,
      "recorded": 5208,
      "carrying": 5209,
      "carriers": 5210,
      "approve": 5211,
      "career": 5212,
      "ruled": 5213,
      "warning": 5214,
      "entertainment": 5215,
      "switch": 5216,
      "normally": 5217,
      "green": 5218,
      "coln": 5219,
      "portfolios": 5220,
      "speak": 5221,
      "badly": 5222,
      "alternatives": 5223,
      "forecasts": 5224,
      "strengthen": 5225,
      "sweet": 5226,
      "BellSouth": 5227,
      "radio": 5228,
      "begins": 5229,
      "bottom": 5230,
      "described": 5231,
      "Brady": 5232,
      "allegations": 5233,
      "barrels": 5234,
      "affiliate": 5235,
      "ticket": 5236,
      "repeated": 5237,
      "sophistic": 5238,
      "pipeline": 5239,
      "amendment": 5240,
      "Lincoln": 5241,
      "Tennes": 5242,
      "Satur": 5243,
      "Greenspan": 5244,
      "Several": 5245,
      "preliminary": 5246,
      "Bud": 5247,
      "Bure": 5248,
      "Black": 5249,
      "Den": 5250,
      "Des": 5251,
      "Dani": 5252,
      "Gas": 5253,
      "Hamp": 5254,
      "Mob": 5255,
      "Marsh": 5256,
      "Never": 5257,
      "Ster": 5258,
      "Tax": 5259,
      "cou": 5260,
      "dial": 5261,
      "fly": 5262,
      "father": 5263,
      "gar": 5264,
      "pin": 5265,
      "pact": 5266,
      "rs": 5267,
      "rush": 5268,
      "sin": 5269,
      "sle": 5270,
      "vict": 5271,
      "zo": 5272,
      "inquir": 5273,
      "reck": 5274,
      "reforms": 5275,
      "enforcement": 5276,
      "stone": 5277,
      "stret": 5278,
      "icted": 5279,
      "icorp": 5280,
      "lean": 5281,
      "unable": 5282,
      "unlikely": 5283,
      "acom": 5284,
      "ades": 5285,
      "poison": 5286,
      "church": 5287,
      "beer": 5288,
      "twent": 5289,
      "concl": 5290,
      "confl": 5291,
      "prohib": 5292,
      "sized": 5293,
      "liament": 5294,
      "owe": 5295,
      "stra": 5296,
      "umin": 5297,
      "dison": 5298,
      "billions": 5299,
      "box": 5300,
      "contain": 5301,
      "retain": 5302,
      "banker": 5303,
      "Stearns": 5304,
      "providing": 5305,
      "driven": 5306,
      "extend": 5307,
      "extended": 5308,
      "statements": 5309,
      "Execut": 5310,
      "genetic": 5311,
      "formation": 5312,
      "Social": 5313,
      "sluggish": 5314,
      "default": 5315,
      "Ross": 5316,
      "sheet": 5317,
      "complic": 5318,
      "Arab": 5319,
      "gotten": 5320,
      "reducing": 5321,
      "politics": 5322,
      "harder": 5323,
      "pilot": 5324,
      "indicate": 5325,
      "sugar": 5326,
      "swap": 5327,
      "steady": 5328,
      "Short": 5329,
      "votes": 5330,
      "Spain": 5331,
      "exploration": 5332,
      "introduce": 5333,
      "alternative": 5334,
      "scientific": 5335,
      "sweep": 5336,
      "massive": 5337,
      "origin": 5338,
      "Midwest": 5339,
      "inventories": 5340,
      "Luf": 5341,
      "branches": 5342,
      "Fujitsu": 5343,
      "Steinhardt": 5344,
      "Banco": 5345,
      "Miller": 5346,
      "adequate": 5347,
      "adopted": 5348,
      "weapons": 5349,
      "merchandise": 5350,
      "citiz": 5351,
      "Hungary": 5352,
      "Jacob": 5353,
      "elaborate": 5354,
      "Tennessee": 5355,
      "Saturday": 5356,
      "Daniel": 5357,
      "Hampshire": 5358,
      "Bern": 5359,
      "Cir": 5360,
      "Chase": 5361,
      "Fann": 5362,
      "Hall": 5363,
      "Hol": 5364,
      "IS": 5365,
      "Jim": 5366,
      "Ly": 5367,
      "Las": 5368,
      "Money": 5369,
      "Pers": 5370,
      "Pho": 5371,
      "Si": 5372,
      "Tai": 5373,
      "Your": 5374,
      "aths": 5375,
      "baum": 5376,
      "dur": 5377,
      "dil": 5378,
      "fed": 5379,
      "gap": 5380,
      "gall": 5381,
      "gather": 5382,
      "lenders": 5383,
      "mits": 5384,
      "pit": 5385,
      "plead": 5386,
      "tu": 5387,
      "uk": 5388,
      "za": 5389,
      "ining": 5390,
      "inson": 5391,
      "inner": 5392,
      "enance": 5393,
      "ario": 5394,
      "esides": 5395,
      "tox": 5396,
      "tobac": 5397,
      "ands": 5398,
      "seats": 5399,
      "igence": 5400,
      "pool": 5401,
      "ecker": 5402,
      "intends": 5403,
      "impossible": 5404,
      "shr": 5405,
      "aby": 5406,
      "termin": 5407,
      "plenty": 5408,
      "spons": 5409,
      "focused": 5410,
      "odd": 5411,
      "ipe": 5412,
      "kei": 5413,
      "peak": 5414,
      "discrimin": 5415,
      "ached": 5416,
      "highway": 5417,
      "club": 5418,
      "brain": 5419,
      "drill": 5420,
      "sellers": 5421,
      "payable": 5422,
      "Rey": 5423,
      "currencies": 5424,
      "causing": 5425,
      "Calif": 5426,
      "Stores": 5427,
      "persu": 5428,
      "iba": 5429,
      "turns": 5430,
      "promised": 5431,
      "organized": 5432,
      "Engel": 5433,
      "records": 5434,
      "specialist": 5435,
      "allowing": 5436,
      "writing": 5437,
      "household": 5438,
      "retailing": 5439,
      "burg": 5440,
      "fields": 5441,
      "motion": 5442,
      "speech": 5443,
      "maintenance": 5444,
      "Small": 5445,
      "Delmed": 5446,
      "threatened": 5447,
      "consumption": 5448,
      "status": 5449,
      "newspapers": 5450,
      "definitive": 5451,
      "cluding": 5452,
      "Philipp": 5453,
      "criticism": 5454,
      "merchant": 5455,
      "procedures": 5456,
      "Current": 5457,
      "OPEC": 5458,
      "frequently": 5459,
      "sensitive": 5460,
      "exactly": 5461,
      "Nikkei": 5462,
      "Kentucky": 5463,
      "taxpayers": 5464,
      "participants": 5465,
      "Martin": 5466,
      "Fannie": 5467,
      "Taiwan": 5468,
      "tobacco": 5469,
      "Engelken": 5470,
      "AM": 5471,
      "Are": 5472,
      "Dire": 5473,
      "Dutch": 5474,
      "Gon": 5475,
      "Hills": 5476,
      "Ko": 5477,
      "Long": 5478,
      "Miam": 5479,
      "Sem": 5480,
      "Says": 5481,
      "Tur": 5482,
      "Up": 5483,
      "bs": 5484,
      "bow": 5485,
      "blow": 5486,
      "dream": 5487,
      "ka": 5488,
      "lag": 5489,
      "pitch": 5490,
      "rivals": 5491,
      "text": 5492,
      "uge": 5493,
      "inspect": 5494,
      "thur": 5495,
      "anx": 5496,
      "ensure": 5497,
      "stated": 5498,
      "alliance": 5499,
      "inghouse": 5500,
      "icious": 5501,
      "illy": 5502,
      "comments": 5503,
      "perman": 5504,
      "imag": 5505,
      "convic": 5506,
      "panic": 5507,
      "atever": 5508,
      "moil": 5509,
      "quer": 5510,
      "prises": 5511,
      "venues": 5512,
      "berts": 5513,
      "oline": 5514,
      "buck": 5515,
      "ipts": 5516,
      "presence": 5517,
      "mont": 5518,
      "ancellor": 5519,
      "prec": 5520,
      "Chancellor": 5521,
      "pull": 5522,
      "Bridge": 5523,
      "Rev": 5524,
      "planes": 5525,
      "closer": 5526,
      "Roberts": 5527,
      "Force": 5528,
      "complained": 5529,
      "Second": 5530,
      "Interstate": 5531,
      "handling": 5532,
      "helps": 5533,
      "versus": 5534,
      "ships": 5535,
      "shipments": 5536,
      "Northern": 5537,
      "carried": 5538,
      "Resources": 5539,
      "indicates": 5540,
      "seeks": 5541,
      "differences": 5542,
      "formerly": 5543,
      "sterling": 5544,
      "audi": 5545,
      "ballo": 5546,
      "occas": 5547,
      "patter": 5548,
      "packages": 5549,
      "Maybe": 5550,
      "authorized": 5551,
      "representatives": 5552,
      "Micro": 5553,
      "reasonable": 5554,
      "meaning": 5555,
      "violations": 5556,
      "secret": 5557,
      "pushing": 5558,
      "flows": 5559,
      "Berlin": 5560,
      "Loan": 5561,
      "Perhaps": 5562,
      "trends": 5563,
      "killed": 5564,
      "elsewhere": 5565,
      "appropriate": 5566,
      "fighting": 5567,
      "performing": 5568,
      "missed": 5569,
      "tape": 5570,
      "disappointing": 5571,
      "turmoil": 5572,
      "possibly": 5573,
      "rapidly": 5574,
      "obligation": 5575,
      "bulk": 5576,
      "message": 5577,
      "waste": 5578,
      "compensation": 5579,
      "Detroit": 5580,
      "micro": 5581,
      "Colorado": 5582,
      "Sunday": 5583,
      "Honecker": 5584,
      "sophisticated": 5585,
      "Bureau": 5586,
      "Miami": 5587,
      "convicted": 5588,
      "Asian": 5589,
      "Bache": 5590,
      "Estim": 5591,
      "Hen": 5592,
      "Iran": 5593,
      "Mas": 5594,
      "Oper": 5595,
      "Pil": 5596,
      "Port": 5597,
      "Paper": 5598,
      "Pont": 5599,
      "Rand": 5600,
      "Sil": 5601,
      "Wis": 5602,
      "Wood": 5603,
      "eal": 5604,
      "eager": 5605,
      "games": 5606,
      "hon": 5607,
      "kno": 5608,
      "mile": 5609,
      "nick": 5610,
      "ride": 5611,
      "ule": 5612,
      "usi": 5613,
      "vary": 5614,
      "zale": 5615,
      "itter": 5616,
      "assi": 5617,
      "eco": 5618,
      "comfort": 5619,
      "agent": 5620,
      "suspect": 5621,
      "iment": 5622,
      "amental": 5623,
      "sila": 5624,
      "sole": 5625,
      "users": 5626,
      "nineties": 5627,
      "cooperation": 5628,
      "ulty": 5629,
      "ancing": 5630,
      "posing": 5631,
      "Compa": 5632,
      "Commod": 5633,
      "expire": 5634,
      "expense": 5635,
      "council": 5636,
      "worker": 5637,
      "dram": 5638,
      "flu": 5639,
      "Bron": 5640,
      "siders": 5641,
      "Bob": 5642,
      "Conn": 5643,
      "ianz": 5644,
      "resulted": 5645,
      "profitability": 5646,
      "Westinghouse": 5647,
      "stitution": 5648,
      "memory": 5649,
      "Arthur": 5650,
      "fici": 5651,
      "Before": 5652,
      "Stocks": 5653,
      "politan": 5654,
      "considerable": 5655,
      "ministry": 5656,
      "broken": 5657,
      "commitment": 5658,
      "delays": 5659,
      "born": 5660,
      "warned": 5661,
      "Allianz": 5662,
      "athlet": 5663,
      "burden": 5664,
      "Orte": 5665,
      "Organ": 5666,
      "happy": 5667,
      "Fox": 5668,
      "subsidiaries": 5669,
      "Fees": 5670,
      "loyalty": 5671,
      "Thomson": 5672,
      "Delaware": 5673,
      "surprise": 5674,
      "EDER": 5675,
      "shock": 5676,
      "favorable": 5677,
      "telling": 5678,
      "expanding": 5679,
      "conducted": 5680,
      "Corry": 5681,
      "ertsila": 5682,
      "premiums": 5683,
      "psyllium": 5684,
      "encourage": 5685,
      "priority": 5686,
      "ponents": 5687,
      "trem": 5688,
      "repair": 5689,
      "tumbled": 5690,
      "screen": 5691,
      "experiment": 5692,
      "departure": 5693,
      "applications": 5694,
      "machinery": 5695,
      "achieved": 5696,
      "Workers": 5697,
      "Waertsila": 5698,
      "dropping": 5699,
      "argument": 5700,
      "neighborhood": 5701,
      "AIDS": 5702,
      "architect": 5703,
      "Toyota": 5704,
      "Messrs": 5705,
      "registered": 5706,
      "Akzo": 5707,
      "Eagle": 5708,
      "husband": 5709,
      "Gonzale": 5710,
      "Compaq": 5711,
      "Waertsilae": 5712,
      "Gonzalez": 5713,
      "AC": 5714,
      "Aet": 5715,
      "Clevel": 5716,
      "Da": 5717,
      "Estate": 5718,
      "Edison": 5719,
      "Fur": 5720,
      "Free": 5721,
      "FEDER": 5722,
      "Hy": 5723,
      "Hond": 5724,
      "Lor": 5725,
      "Latin": 5726,
      "Ral": 5727,
      "SE": 5728,
      "Sha": 5729,
      "Van": 5730,
      "aide": 5731,
      "bio": 5732,
      "caught": 5733,
      "fal": 5734,
      "fet": 5735,
      "pages": 5736,
      "sand": 5737,
      "skept": 5738,
      "tor": 5739,
      "tent": 5740,
      "tone": 5741,
      "tally": 5742,
      "zer": 5743,
      "erally": 5744,
      "erick": 5745,
      "revolution": 5746,
      "storage": 5747,
      "edition": 5748,
      "unsecured": 5749,
      "utilities": 5750,
      "intense": 5751,
      "love": 5752,
      "sui": 5753,
      "convers": 5754,
      "abody": 5755,
      "abilities": 5756,
      "pra": 5757,
      "otech": 5758,
      "overhaul": 5759,
      "incin": 5760,
      "preced": 5761,
      "pregn": 5762,
      "becomes": 5763,
      "feed": 5764,
      "airlines": 5765,
      "retired": 5766,
      "forest": 5767,
      "lined": 5768,
      "governments": 5769,
      "funded": 5770,
      "lawsuit": 5771,
      "commissions": 5772,
      "erospace": 5773,
      "apple": 5774,
      "fellow": 5775,
      "looked": 5776,
      "aska": 5777,
      "Prices": 5778,
      "ranging": 5779,
      "generate": 5780,
      "writer": 5781,
      "corp": 5782,
      "correct": 5783,
      "nature": 5784,
      "color": 5785,
      "voting": 5786,
      "broader": 5787,
      "located": 5788,
      "Peabody": 5789,
      "succeeded": 5790,
      "targets": 5791,
      "profession": 5792,
      "principle": 5793,
      "underwriter": 5794,
      "casino": 5795,
      "bringing": 5796,
      "opportunities": 5797,
      "performed": 5798,
      "Webster": 5799,
      "spirits": 5800,
      "regarding": 5801,
      "learned": 5802,
      "penalty": 5803,
      "Governor": 5804,
      "Government": 5805,
      "delayed": 5806,
      "Panama": 5807,
      "hearings": 5808,
      "Foods": 5809,
      "incentives": 5810,
      "observers": 5811,
      "merely": 5812,
      "cosmetics": 5813,
      "Mobil": 5814,
      "Ortega": 5815,
      "Aetna": 5816,
      "Cleveland": 5817,
      "FEDERAL": 5818,
      "Agr": 5819,
      "Bart": 5820,
      "Go": 5821,
      "Ica": 5822,
      "Next": 5823,
      "NAT": 5824,
      "bod": 5825,
      "eli": 5826,
      "freedom": 5827,
      "ien": 5828,
      "ilo": 5829,
      "leng": 5830,
      "nic": 5831,
      "nival": 5832,
      "rations": 5833,
      "weigh": 5834,
      "wave": 5835,
      "thod": 5836,
      "reinsurance": 5837,
      "theby": 5838,
      "theory": 5839,
      "ateral": 5840,
      "stakes": 5841,
      "arman": 5842,
      "arms": 5843,
      "llar": 5844,
      "ione": 5845,
      "veter": 5846,
      "hem": 5847,
      "ropolitan": 5848,
      "acad": 5849,
      "accur": 5850,
      "forcing": 5851,
      "agents": 5852,
      "imate": 5853,
      "consequ": 5854,
      "prote": 5855,
      "trail": 5856,
      "reserve": 5857,
      "atell": 5858,
      "deaths": 5859,
      "Inte": 5860,
      "ila": 5861,
      "hail": 5862,
      "embr": 5863,
      "ifying": 5864,
      "blame": 5865,
      "corporation": 5866,
      "prepar": 5867,
      "boys": 5868,
      "Any": 5869,
      "ideas": 5870,
      "Corporate": 5871,
      "operated": 5872,
      "operators": 5873,
      "Who": 5874,
      "fled": 5875,
      "flights": 5876,
      "earning": 5877,
      "Sotheby": 5878,
      "Coke": 5879,
      "sensus": 5880,
      "heads": 5881,
      "numerous": 5882,
      "Beach": 5883,
      "turnover": 5884,
      "cycle": 5885,
      "consideration": 5886,
      "strongly": 5887,
      "judg": 5888,
      "Marine": 5889,
      "doubled": 5890,
      "Without": 5891,
      "packaging": 5892,
      "Auto": 5893,
      "successor": 5894,
      "column": 5895,
      "motor": 5896,
      "lists": 5897,
      "schedule": 5898,
      "explain": 5899,
      "deterior": 5900,
      "determine": 5901,
      "statistics": 5902,
      "responded": 5903,
      "bels": 5904,
      "friends": 5905,
      "promotion": 5906,
      "suspension": 5907,
      "checks": 5908,
      "delivered": 5909,
      "contributions": 5910,
      "absor": 5911,
      "plastics": 5912,
      "Little": 5913,
      "machinists": 5914,
      "connection": 5915,
      "starts": 5916,
      "duty": 5917,
      "Freddie": 5918,
      "Maryland": 5919,
      "Hahn": 5920,
      "mainframe": 5921,
      "Maxwell": 5922,
      "Citicorp": 5923,
      "Commonwealth": 5924,
      "Giuli": 5925,
      "witness": 5926,
      "Turner": 5927,
      "certificates": 5928,
      "liberal": 5929,
      "garden": 5930,
      "reluctant": 5931,
      "Daiwa": 5932,
      "bailout": 5933,
      "redeem": 5934,
      "wholesale": 5935,
      "Containers": 5936,
      "stretch": 5937,
      "Icahn": 5938,
      "Ash": 5939,
      "Alex": 5940,
      "Bon": 5941,
      "CH": 5942,
      "Dun": 5943,
      "Hous": 5944,
      "Isl": 5945,
      "Kle": 5946,
      "Les": 5947,
      "Land": 5948,
      "Lip": 5949,
      "Nat": 5950,
      "Neither": 5951,
      "Pu": 5952,
      "Put": 5953,
      "Rob": 5954,
      "TS": 5955,
      "Te": 5956,
      "Wars": 5957,
      "Walter": 5958,
      "drew": 5959,
      "fab": 5960,
      "fem": 5961,
      "gun": 5962,
      "hensive": 5963,
      "ko": 5964,
      "lap": 5965,
      "rice": 5966,
      "rub": 5967,
      "send": 5968,
      "sche": 5969,
      "treas": 5970,
      "wart": 5971,
      "wish": 5972,
      "ana": 5973,
      "rete": 5974,
      "reward": 5975,
      "remember": 5976,
      "enix": 5977,
      "stuff": 5978,
      "ara": 5979,
      "alties": 5980,
      "champ": 5981,
      "chains": 5982,
      "ighter": 5983,
      "beha": 5984,
      "pert": 5985,
      "percept": 5986,
      "permit": 5987,
      "implic": 5988,
      "conven": 5989,
      "consensus": 5990,
      "prop": 5991,
      "shore": 5992,
      "quant": 5993,
      "plaint": 5994,
      "sored": 5995,
      "essor": 5996,
      "gry": 5997,
      "nost": 5998,
      "somewhat": 5999,
      "timing": 6000,
      "Newport": 6001,
      "count": 6002,
      "link": 6003,
      "fundamental": 6004,
      "fert": 6005,
      "maybe": 6006,
      "ualty": 6007,
      "path": 6008,
      "broke": 6009,
      "defensive": 6010,
      "causes": 6011,
      "Bankers": 6012,
      "Bankruptcy": 6013,
      "credibility": 6014,
      "dealings": 6015,
      "playing": 6016,
      "accounted": 6017,
      "interpret": 6018,
      "compete": 6019,
      "competing": 6020,
      "Northeast": 6021,
      "totaling": 6022,
      "hardly": 6023,
      "bitter": 6024,
      "imported": 6025,
      "borg": 6026,
      "Carl": 6027,
      "Carnival": 6028,
      "charging": 6029,
      "mocratic": 6030,
      "subsidies": 6031,
      "ysis": 6032,
      "colm": 6033,
      "teams": 6034,
      "Germans": 6035,
      "Indiana": 6036,
      "employers": 6037,
      "combination": 6038,
      "experienced": 6039,
      "watching": 6040,
      "license": 6041,
      "Holding": 6042,
      "teachers": 6043,
      "Viacom": 6044,
      "resolved": 6045,
      "circulation": 6046,
      "lleborg": 6047,
      "occurred": 6048,
      "experiments": 6049,
      "Malcolm": 6050,
      "convinc": 6051,
      "calculated": 6052,
      "Sciences": 6053,
      "duties": 6054,
      "selected": 6055,
      "mobile": 6056,
      "Harris": 6057,
      "abandoned": 6058,
      "routine": 6059,
      "renewed": 6060,
      "syndicate": 6061,
      "semiconductor": 6062,
      "Trelleborg": 6063,
      "younger": 6064,
      "Sterling": 6065,
      "twentieth": 6066,
      "knock": 6067,
      "otechnology": 6068,
      "Giuliani": 6069,
      "AP": 6070,
      "Agency": 6071,
      "Cab": 6072,
      "Cra": 6073,
      "Day": 6074,
      "Emp": 6075,
      "Fire": 6076,
      "FOR": 6077,
      "Gal": 6078,
      "Gard": 6079,
      "Jen": 6080,
      "Jef": 6081,
      "Kenn": 6082,
      "LL": 6083,
      "Lau": 6084,
      "Much": 6085,
      "RO": 6086,
      "Rad": 6087,
      "Rally": 6088,
      "Spi": 6089,
      "Ted": 6090,
      "Tand": 6091,
      "Tim": 6092,
      "Take": 6093,
      "Ut": 6094,
      "apolis": 6095,
      "bour": 6096,
      "creat": 6097,
      "eper": 6098,
      "evalu": 6099,
      "fa": 6100,
      "fans": 6101,
      "gam": 6102,
      "hired": 6103,
      "ius": 6104,
      "male": 6105,
      "penn": 6106,
      "raw": 6107,
      "uit": 6108,
      "vail": 6109,
      "wich": 6110,
      "yers": 6111,
      "rees": 6112,
      "reve": 6113,
      "recover": 6114,
      "recapitalization": 6115,
      "revenues": 6116,
      "stories": 6117,
      "stadium": 6118,
      "aling": 6119,
      "escap": 6120,
      "itation": 6121,
      "isse": 6122,
      "isition": 6123,
      "ander": 6124,
      "iders": 6125,
      "lebr": 6126,
      "lease": 6127,
      "rob": 6128,
      "acre": 6129,
      "ador": 6130,
      "pover": 6131,
      "doctor": 6132,
      "belong": 6133,
      "exc": 6134,
      "consin": 6135,
      "amer": 6136,
      "amber": 6137,
      "mental": 6138,
      "celebr": 6139,
      "ewel": 6140,
      "plom": 6141,
      "otton": 6142,
      "offs": 6143,
      "marketplace": 6144,
      "mons": 6145,
      "peace": 6146,
      "disclo": 6147,
      "compon": 6148,
      "identify": 6149,
      "contend": 6150,
      "timore": 6151,
      "fee": 6152,
      "governor": 6153,
      "backing": 6154,
      "flash": 6155,
      "Dean": 6156,
      "capt": 6157,
      "readers": 6158,
      "inker": 6159,
      "purposes": 6160,
      "transport": 6161,
      "halt": 6162,
      "valuation": 6163,
      "guide": 6164,
      "Coors": 6165,
      "Att": 6166,
      "developers": 6167,
      "farmer": 6168,
      "advisers": 6169,
      "Banking": 6170,
      "iously": 6171,
      "handled": 6172,
      "matic": 6173,
      "promises": 6174,
      "Lead": 6175,
      "viously": 6176,
      "organizations": 6177,
      "famous": 6178,
      "McDonald": 6179,
      "Seag": 6180,
      "demands": 6181,
      "hoped": 6182,
      "Paramount": 6183,
      "distributed": 6184,
      "Program": 6185,
      "metric": 6186,
      "gasoline": 6187,
      "eased": 6188,
      "iamond": 6189,
      "milk": 6190,
      "Maynard": 6191,
      "happens": 6192,
      "breaking": 6193,
      "discussing": 6194,
      "circuit": 6195,
      "India": 6196,
      "Chev": 6197,
      "Williams": 6198,
      "Golden": 6199,
      "revive": 6200,
      "filings": 6201,
      "cards": 6202,
      "definition": 6203,
      "RICO": 6204,
      "educational": 6205,
      "Saab": 6206,
      "missing": 6207,
      "horse": 6208,
      "recommended": 6209,
      "football": 6210,
      "features": 6211,
      "insurer": 6212,
      "acceler": 6213,
      "cellular": 6214,
      "integrated": 6215,
      "Profit": 6216,
      "mountain": 6217,
      "walk": 6218,
      "acknowledged": 6219,
      "variety": 6220,
      "symbol": 6221,
      "Baltimore": 6222,
      "sanctions": 6223,
      "Douglas": 6224,
      "assembly": 6225,
      "Brazil": 6226,
      "canceled": 6227,
      "Nicaragua": 6228,
      "punish": 6229,
      "pulp": 6230,
      "reputation": 6231,
      "enjoy": 6232,
      "optimistic": 6233,
      "terrorism": 6234,
      "folk": 6235,
      "murder": 6236,
      "nervous": 6237,
      "Marshall": 6238,
      "victory": 6239,
      "straight": 6240,
      "Phoenix": 6241,
      "durable": 6242,
      "permanent": 6243,
      "Pilson": 6244,
      "Wisconsin": 6245,
      "ficiency": 6246,
      "Housing": 6247,
      "Bow": 6248,
      "Besides": 6249,
      "Cas": 6250,
      "Cran": 6251,
      "DE": 6252,
      "Dor": 6253,
      "Eli": 6254,
      "Edu": 6255,
      "Hunt": 6256,
      "IG": 6257,
      "Kat": 6258,
      "Nom": 6259,
      "NAS": 6260,
      "Out": 6261,
      "Orange": 6262,
      "Ret": 6263,
      "Rod": 6264,
      "River": 6265,
      "Sign": 6266,
      "Show": 6267,
      "efell": 6268,
      "fred": 6269,
      "han": 6270,
      "hes": 6271,
      "kick": 6272,
      "kla": 6273,
      "lend": 6274,
      "ost": 6275,
      "ogg": 6276,
      "pain": 6277,
      "papers": 6278,
      "rare": 6279,
      "tissue": 6280,
      "vast": 6281,
      "ware": 6282,
      "zon": 6283,
      "inn": 6284,
      "inist": 6285,
      "recalls": 6286,
      "enth": 6287,
      "alog": 6288,
      "iter": 6289,
      "oud": 6290,
      "oft": 6291,
      "assa": 6292,
      "university": 6293,
      "unfair": 6294,
      "admitted": 6295,
      "uries": 6296,
      "beaut": 6297,
      "lov": 6298,
      "ags": 6299,
      "agric": 6300,
      "constant": 6301,
      "whites": 6302,
      "mother": 6303,
      "tested": 6304,
      "lift": 6305,
      "plum": 6306,
      "asters": 6307,
      "cos": 6308,
      "actors": 6309,
      "ults": 6310,
      "opher": 6311,
      "nineteenth": 6312,
      "mergers": 6313,
      "answers": 6314,
      "neapolis": 6315,
      "Commercial": 6316,
      "disc": 6317,
      "novel": 6318,
      "compares": 6319,
      "prevail": 6320,
      "Chief": 6321,
      "downtown": 6322,
      "driving": 6323,
      "interesting": 6324,
      "Brands": 6325,
      "Boren": 6326,
      "Contra": 6327,
      "relative": 6328,
      "thirds": 6329,
      "echan": 6330,
      "desk": 6331,
      "Rosen": 6332,
      "divisions": 6333,
      "concrete": 6334,
      "persist": 6335,
      "viewed": 6336,
      "apping": 6337,
      "applied": 6338,
      "dealing": 6339,
      "creative": 6340,
      "pressing": 6341,
      "asks": 6342,
      "prompted": 6343,
      "supporters": 6344,
      "shortly": 6345,
      "sixteenth": 6346,
      "founded": 6347,
      "Texaco": 6348,
      "metal": 6349,
      "attracted": 6350,
      "Minneapolis": 6351,
      "planners": 6352,
      "occup": 6353,
      "Author": 6354,
      "legislative": 6355,
      "represented": 6356,
      "Acqu": 6357,
      "broadcast": 6358,
      "Courter": 6359,
      "maintained": 6360,
      "explained": 6361,
      "Human": 6362,
      "golden": 6363,
      "classes": 6364,
      "COM": 6365,
      "necessarily": 6366,
      "diplom": 6367,
      "Christopher": 6368,
      "printing": 6369,
      "Trading": 6370,
      "pollution": 6371,
      "African": 6372,
      "joining": 6373,
      "Malay": 6374,
      "guaranteed": 6375,
      "Rockefell": 6376,
      "restaurants": 6377,
      "aggressively": 6378,
      "oblig": 6379,
      "tools": 6380,
      "CORPORATION": 6381,
      "essentially": 6382,
      "eggs": 6383,
      "scenario": 6384,
      "Kellogg": 6385,
      "rescue": 6386,
      "entrepreneur": 6387,
      "sustained": 6388,
      "Mesa": 6389,
      "Vegas": 6390,
      "Bethle": 6391,
      "atellite": 6392,
      "Spiel": 6393,
      "plummet": 6394,
      "Rockefeller": 6395,
      "Bet": 6396,
      "Coh": 6397,
      "Dy": 6398,
      "Egg": 6399,
      "Fal": 6400,
      "Haw": 6401,
      "Lew": 6402,
      "Mad": 6403,
      "None": 6404,
      "PRI": 6405,
      "Rud": 6406,
      "Remic": 6407,
      "Tiger": 6408,
      "Wolf": 6409,
      "barely": 6410,
      "hone": 6411,
      "mir": 6412,
      "master": 6413,
      "pective": 6414,
      "ration": 6415,
      "tro": 6416,
      "tie": 6417,
      "uc": 6418,
      "yl": 6419,
      "zman": 6420,
      "revers": 6421,
      "restore": 6422,
      "thetic": 6423,
      "arian": 6424,
      "unions": 6425,
      "unemployment": 6426,
      "charter": 6427,
      "uters": 6428,
      "behalf": 6429,
      "agrees": 6430,
      "sued": 6431,
      "imposed": 6432,
      "pointed": 6433,
      "coast": 6434,
      "coordin": 6435,
      "embarr": 6436,
      "ichi": 6437,
      "umul": 6438,
      "uster": 6439,
      "newsl": 6440,
      "disrupt": 6441,
      "nobody": 6442,
      "method": 6443,
      "Ann": 6444,
      "Ital": 6445,
      "oking": 6446,
      "counts": 6447,
      "anybody": 6448,
      "overnight": 6449,
      "subcommittee": 6450,
      "drag": 6451,
      "backlog": 6452,
      "formul": 6453,
      "arran": 6454,
      "produces": 6455,
      "medium": 6456,
      "debts": 6457,
      "desire": 6458,
      "cheaper": 6459,
      "Roths": 6460,
      "resulting": 6461,
      "risen": 6462,
      "ields": 6463,
      "credits": 6464,
      "thinking": 6465,
      "reductions": 6466,
      "foreigners": 6467,
      "promote": 6468,
      "boards": 6469,
      "Airways": 6470,
      "engaged": 6471,
      "carries": 6472,
      "regulation": 6473,
      "indicators": 6474,
      "reaching": 6475,
      "Warren": 6476,
      "eva": 6477,
      "Guaran": 6478,
      "retailer": 6479,
      "Advert": 6480,
      "weaker": 6481,
      "seventeenth": 6482,
      "successfully": 6483,
      "Feder": 6484,
      "Polish": 6485,
      "difficulties": 6486,
      "ALL": 6487,
      "Medic": 6488,
      "distin": 6489,
      "grounds": 6490,
      "accident": 6491,
      "detailed": 6492,
      "anticipation": 6493,
      "requested": 6494,
      "borrowing": 6495,
      "Donaldson": 6496,
      "disappointed": 6497,
      "participation": 6498,
      "Israeli": 6499,
      "resistance": 6500,
      "refinery": 6501,
      "crucial": 6502,
      "incentive": 6503,
      "achieve": 6504,
      "controversy": 6505,
      "concentrate": 6506,
      "Economic": 6507,
      "walls": 6508,
      "title": 6509,
      "mainframes": 6510,
      "ttes": 6511,
      "intellect": 6512,
      "emphasis": 6513,
      "complaints": 6514,
      "arrangement": 6515,
      "Cathay": 6516,
      "Typ": 6517,
      "maximum": 6518,
      "Quebecor": 6519,
      "touch": 6520,
      "Travel": 6521,
      "Nevertheless": 6522,
      "false": 6523,
      "Bartlett": 6524,
      "Kennedy": 6525,
      "Nomura": 6526,
      "Acquisition": 6527,
      "Bethlehem": 6528,
      "embarrass": 6529,
      "Rothschild": 6530,
      "Fair": 6531,
      "IR": 6532,
      "Men": 6533,
      "Oreg": 6534,
      "Squ": 6535,
      "breed": 6536,
      "bloc": 6537,
      "fusion": 6538,
      "hi": 6539,
      "hire": 6540,
      "jail": 6541,
      "lent": 6542,
      "mes": 6543,
      "mechan": 6544,
      "sun": 6545,
      "slo": 6546,
      "vin": 6547,
      "vul": 6548,
      "vine": 6549,
      "video": 6550,
      "wine": 6551,
      "inas": 6552,
      "infr": 6553,
      "indu": 6554,
      "insp": 6555,
      "onsored": 6556,
      "retr": 6557,
      "recru": 6558,
      "ento": 6559,
      "theme": 6560,
      "orous": 6561,
      "itol": 6562,
      "totally": 6563,
      "ionally": 6564,
      "entry": 6565,
      "isk": 6566,
      "anda": 6567,
      "ician": 6568,
      "eton": 6569,
      "igible": 6570,
      "unexpected": 6571,
      "lyn": 6572,
      "fier": 6573,
      "doctors": 6574,
      "utions": 6575,
      "arel": 6576,
      "bean": 6577,
      "lok": 6578,
      "perial": 6579,
      "permission": 6580,
      "exhib": 6581,
      "exempt": 6582,
      "amm": 6583,
      "ambit": 6584,
      "shake": 6585,
      "absol": 6586,
      "reserv": 6587,
      "atest": 6588,
      "ouri": 6589,
      "owa": 6590,
      "manip": 6591,
      "outcome": 6592,
      "outlets": 6593,
      "string": 6594,
      "strip": 6595,
      "strik": 6596,
      "alls": 6597,
      "weather": 6598,
      "emption": 6599,
      "ulous": 6600,
      "merge": 6601,
      "ipals": 6602,
      "pressures": 6603,
      "mono": 6604,
      "iegel": 6605,
      "crush": 6606,
      "igned": 6607,
      "boy": 6608,
      "curb": 6609,
      "surround": 6610,
      "businessmen": 6611,
      "officers": 6612,
      "minus": 6613,
      "minute": 6614,
      "downs": 6615,
      "downward": 6616,
      "lining": 6617,
      "raises": 6618,
      "Wells": 6619,
      "attitude": 6620,
      "attached": 6621,
      "Constitution": 6622,
      "ppen": 6623,
      "gyrations": 6624,
      "Moon": 6625,
      "Cole": 6626,
      "legit": 6627,
      "cleared": 6628,
      "advice": 6629,
      "choose": 6630,
      "respective": 6631,
      "prompt": 6632,
      "shipyard": 6633,
      "collar": 6634,
      "collateral": 6635,
      "scar": 6636,
      "scene": 6637,
      "importance": 6638,
      "vogel": 6639,
      "generated": 6640,
      "indication": 6641,
      "indicating": 6642,
      "districts": 6643,
      "Finn": 6644,
      "findings": 6645,
      "Colomb": 6646,
      "magnet": 6647,
      "properly": 6648,
      "Allied": 6649,
      "institution": 6650,
      "nationwide": 6651,
      "Capitol": 6652,
      "Adv": 6653,
      "legislators": 6654,
      "sky": 6655,
      "Mayor": 6656,
      "potentially": 6657,
      "difficulty": 6658,
      "greatly": 6659,
      "employed": 6660,
      "destroy": 6661,
      "quotations": 6662,
      "Barney": 6663,
      "Bonds": 6664,
      "predicting": 6665,
      "omingdale": 6666,
      "segments": 6667,
      "learn": 6668,
      "modestly": 6669,
      "comparison": 6670,
      "participate": 6671,
      "Packwood": 6672,
      "function": 6673,
      "obtained": 6674,
      "candidate": 6675,
      "biotechnology": 6676,
      "busy": 6677,
      "Simmons": 6678,
      "Missouri": 6679,
      "Russian": 6680,
      "struggling": 6681,
      "squeeze": 6682,
      "Royal": 6683,
      "flexibility": 6684,
      "converted": 6685,
      "category": 6686,
      "Bloomingdale": 6687,
      "cigarettes": 6688,
      "originally": 6689,
      "Lufkin": 6690,
      "citizens": 6691,
      "shrink": 6692,
      "discrimination": 6693,
      "Estimated": 6694,
      "Henry": 6695,
      "Klein": 6696,
      "poverty": 6697,
      "Attorney": 6698,
      "NASA": 6699,
      "enthusi": 6700,
      "Spielvogel": 6701,
      "Oregon": 6702,
      "vulner": 6703,
      "Az": 6704,
      "Bat": 6705,
      "Block": 6706,
      "Ca": 6707,
      "Cand": 6708,
      "Card": 6709,
      "Cub": 6710,
      "Evans": 6711,
      "Found": 6712,
      "Fili": 6713,
      "Gary": 6714,
      "Hun": 6715,
      "Hear": 6716,
      "Hast": 6717,
      "Ir": 6718,
      "Iowa": 6719,
      "MER": 6720,
      "NE": 6721,
      "Pep": 6722,
      "Rou": 6723,
      "Sid": 6724,
      "Spr": 6725,
      "Saf": 6726,
      "Sub": 6727,
      "TR": 6728,
      "bes": 6729,
      "bott": 6730,
      "dress": 6731,
      "eat": 6732,
      "furn": 6733,
      "gro": 6734,
      "gree": 6735,
      "laugh": 6736,
      "march": 6737,
      "oz": 6738,
      "penter": 6739,
      "rain": 6740,
      "tast": 6741,
      "ua": 6742,
      "ux": 6743,
      "yu": 6744,
      "oning": 6745,
      "ongest": 6746,
      "remark": 6747,
      "reset": 6748,
      "remove": 6749,
      "recovered": 6750,
      "enger": 6751,
      "theater": 6752,
      "stig": 6753,
      "stones": 6754,
      "stability": 6755,
      "arre": 6756,
      "alysis": 6757,
      "isys": 6758,
      "icing": 6759,
      "league": 6760,
      "igel": 6761,
      "acres": 6762,
      "dog": 6763,
      "intention": 6764,
      "urging": 6765,
      "agers": 6766,
      "extr": 6767,
      "explan": 6768,
      "impe": 6769,
      "imony": 6770,
      "construct": 6771,
      "conspir": 6772,
      "democratic": 6773,
      "degree": 6774,
      "tees": 6775,
      "frag": 6776,
      "plate": 6777,
      "otal": 6778,
      "ounces": 6779,
      "cock": 6780,
      "oppose": 6781,
      "olen": 6782,
      "ection": 6783,
      "sponsored": 6784,
      "isters": 6785,
      "incur": 6786,
      "incident": 6787,
      "iega": 6788,
      "indict": 6789,
      "crimes": 6790,
      "disease": 6791,
      "vior": 6792,
      "goals": 6793,
      "fined": 6794,
      "decades": 6795,
      "oked": 6796,
      "counting": 6797,
      "efficiency": 6798,
      "Stone": 6799,
      "math": 6800,
      "encil": 6801,
      "Unisys": 6802,
      "argues": 6803,
      "obst": 6804,
      "issance": 6805,
      "faction": 6806,
      "Contr": 6807,
      "Conner": 6808,
      "Already": 6809,
      "defaul": 6810,
      "guy": 6811,
      "stitu": 6812,
      "Code": 6813,
      "steep": 6814,
      "bidders": 6815,
      "financially": 6816,
      "realized": 6817,
      "gery": 6818,
      "controlling": 6819,
      "Interest": 6820,
      "handed": 6821,
      "handful": 6822,
      "testing": 6823,
      "Noriega": 6824,
      "studying": 6825,
      "Environment": 6826,
      "McDon": 6827,
      "brewing": 6828,
      "piec": 6829,
      "approxim": 6830,
      "deny": 6831,
      "denomin": 6832,
      "Colgate": 6833,
      "Marina": 6834,
      "Marcos": 6835,
      "Dollar": 6836,
      "Howard": 6837,
      "measured": 6838,
      "visible": 6839,
      "winning": 6840,
      "sentiment": 6841,
      "electrical": 6842,
      "greatest": 6843,
      "Share": 6844,
      "negotiated": 6845,
      "dependence": 6846,
      "projections": 6847,
      "Holl": 6848,
      "Spiegel": 6849,
      "restricted": 6850,
      "loyal": 6851,
      "copies": 6852,
      "networks": 6853,
      "bacter": 6854,
      "attempting": 6855,
      "attempts": 6856,
      "AND": 6857,
      "homeless": 6858,
      "population": 6859,
      "Earth": 6860,
      "respondents": 6861,
      "expanded": 6862,
      "petroleum": 6863,
      "definite": 6864,
      "shops": 6865,
      "surveyed": 6866,
      "technique": 6867,
      "seriously": 6868,
      "effectively": 6869,
      "rape": 6870,
      "encouraged": 6871,
      "Florio": 6872,
      "entirely": 6873,
      "plea": 6874,
      "pleas": 6875,
      "criticized": 6876,
      "Technologies": 6877,
      "collection": 6878,
      "allegedly": 6879,
      "iveness": 6880,
      "streets": 6881,
      "warrant": 6882,
      "Fuji": 6883,
      "Palest": 6884,
      "Whitbread": 6885,
      "Equipment": 6886,
      "assuming": 6887,
      "south": 6888,
      "concedes": 6889,
      "dominated": 6890,
      "welcome": 6891,
      "railroad": 6892,
      "eteering": 6893,
      "kids": 6894,
      "RATE": 6895,
      "shape": 6896,
      "discipline": 6897,
      "Farmers": 6898,
      "extensive": 6899,
      "unveiled": 6900,
      "Hanover": 6901,
      "watched": 6902,
      "innov": 6903,
      "astroph": 6904,
      "inquiry": 6905,
      "dilut": 6906,
      "dramatic": 6907,
      "Organization": 6908,
      "precedent": 6909,
      "Agric": 6910,
      "veteran": 6911,
      "academic": 6912,
      "behavior": 6913,
      "plaintiffs": 6914,
      "Malaysia": 6915,
      "Cohen": 6916,
      "Italian": 6917,
      "Hastings": 6918,
      "AG": 6919,
      "Ach": 6920,
      "Bates": 6921,
      "Call": 6922,
      "Cable": 6923,
      "Cincin": 6924,
      "DES": 6925,
      "Fidel": 6926,
      "Giants": 6927,
      "IF": 6928,
      "LI": 6929,
      "Nich": 6930,
      "Nigel": 6931,
      "Pem": 6932,
      "Pict": 6933,
      "Pinker": 6934,
      "Ram": 6935,
      "Rated": 6936,
      "Rica": 6937,
      "Ronald": 6938,
      "Sac": 6939,
      "Span": 6940,
      "Section": 6941,
      "Ur": 6942,
      "UST": 6943,
      "Wild": 6944,
      "Water": 6945,
      "border": 6946,
      "cro": 6947,
      "cia": 6948,
      "cattle": 6949,
      "eases": 6950,
      "emot": 6951,
      "hits": 6952,
      "hum": 6953,
      "iation": 6954,
      "jewel": 6955,
      "kers": 6956,
      "lad": 6957,
      "luster": 6958,
      "slower": 6959,
      "tack": 6960,
      "ws": 6961,
      "wages": 6962,
      "insul": 6963,
      "inher": 6964,
      "insider": 6965,
      "instruct": 6966,
      "remo": 6967,
      "remarks": 6968,
      "replaced": 6969,
      "enbaum": 6970,
      "storm": 6971,
      "arity": 6972,
      "edged": 6973,
      "enture": 6974,
      "aside": 6975,
      "omen": 6976,
      "omed": 6977,
      "iden": 6978,
      "leverage": 6979,
      "uni": 6980,
      "accompl": 6981,
      "admits": 6982,
      "illustr": 6983,
      "fies": 6984,
      "intend": 6985,
      "loit": 6986,
      "pered": 6987,
      "permitted": 6988,
      "concess": 6989,
      "constitu": 6990,
      "proof": 6991,
      "tron": 6992,
      "ams": 6993,
      "abuse": 6994,
      "siz": 6995,
      "sisted": 6996,
      "lire": 6997,
      "Individ": 6998,
      "prise": 6999,
      "aks": 7000,
      "aken": 7001,
      "ussels": 7002,
      "asts": 7003,
      "dub": 7004,
      "covers": 7005,
      "antile": 7006,
      "spill": 7007,
      "upward": 7008,
      "ghost": 7009,
      "olds": 7010,
      "cribe": 7011,
      "dismissed": 7012,
      "expend": 7013,
      "cury": 7014,
      "Antar": 7015,
      "feld": 7016,
      "retained": 7017,
      "Church": 7018,
      "operational": 7019,
      "Stud": 7020,
      "ashed": 7021,
      "assass": 7022,
      "submit": 7023,
      "subsequ": 7024,
      "fundament": 7025,
      "expecting": 7026,
      "Brussels": 7027,
      "Reg": 7028,
      "attended": 7029,
      "programming": 7030,
      "financier": 7031,
      "plane": 7032,
      "takeovers": 7033,
      "slid": 7034,
      "slump": 7035,
      "Roger": 7036,
      "advised": 7037,
      "complain": 7038,
      "viewers": 7039,
      "apparel": 7040,
      "implement": 7041,
      "contractor": 7042,
      "contractors": 7043,
      "promin": 7044,
      "Leban": 7045,
      "versions": 7046,
      "plays": 7047,
      "namics": 7048,
      "Priv": 7049,
      "refuge": 7050,
      "developments": 7051,
      "everybody": 7052,
      "cessive": 7053,
      "committees": 7054,
      "Shell": 7055,
      "solve": 7056,
      "solicit": 7057,
      "Seoul": 7058,
      "allows": 7059,
      "corner": 7060,
      "Carpenter": 7061,
      "audit": 7062,
      "easing": 7063,
      "northern": 7064,
      "visitors": 7065,
      "posts": 7066,
      "Guard": 7067,
      "informed": 7068,
      "Within": 7069,
      "nati": 7070,
      "INCORPORAT": 7071,
      "Lawyers": 7072,
      "projected": 7073,
      "Polit": 7074,
      "scram": 7075,
      "explains": 7076,
      "missi": 7077,
      "science": 7078,
      "frey": 7079,
      "semi": 7080,
      "Franklin": 7081,
      "discussed": 7082,
      "distance": 7083,
      "picked": 7084,
      "ringers": 7085,
      "focusing": 7086,
      "prosecutor": 7087,
      "diver": 7088,
      "approached": 7089,
      "borrowed": 7090,
      "completely": 7091,
      "devast": 7092,
      "Korean": 7093,
      "teacher": 7094,
      "deadline": 7095,
      "Jackson": 7096,
      "Milton": 7097,
      "harvest": 7098,
      "insists": 7099,
      "replacement": 7100,
      "multi": 7101,
      "consistently": 7102,
      "injured": 7103,
      "speculators": 7104,
      "Partnership": 7105,
      "southern": 7106,
      "Volok": 7107,
      "donations": 7108,
      "stimul": 7109,
      "ilizing": 7110,
      "ilization": 7111,
      "involvement": 7112,
      "StatesWest": 7113,
      "truth": 7114,
      "RATES": 7115,
      "Products": 7116,
      "Mercantile": 7117,
      "deduct": 7118,
      "racketeering": 7119,
      "mentioned": 7120,
      "schol": 7121,
      "Executive": 7122,
      "Jacobson": 7123,
      "pleaded": 7124,
      "Currently": 7125,
      "length": 7126,
      "Radio": 7127,
      "Educ": 7128,
      "Lewis": 7129,
      "PRIME": 7130,
      "intellectual": 7131,
      "Environmental": 7132,
      "Cincinnati": 7133,
      "Nichol": 7134,
      "Pemex": 7135,
      "Pinkerton": 7136,
      "Individual": 7137,
      "INCORPORATED": 7138,
      "Volokh": 7139,
      "Avenue": 7140,
      "Bre": 7141,
      "Bas": 7142,
      "Bally": 7143,
      "CF": 7144,
      "Cow": 7145,
      "Cross": 7146,
      "Die": 7147,
      "Denn": 7148,
      "Fres": 7149,
      "Fort": 7150,
      "Kansas": 7151,
      "LO": 7152,
      "Lex": 7153,
      "Lot": 7154,
      "Marg": 7155,
      "Mell": 7156,
      "Mik": 7157,
      "Nu": 7158,
      "Nash": 7159,
      "Nob": 7160,
      "Others": 7161,
      "Press": 7162,
      "Ren": 7163,
      "Rather": 7164,
      "UR": 7165,
      "Vice": 7166,
      "Way": 7167,
      "Witter": 7168,
      "Zeal": 7169,
      "aerospace": 7170,
      "baby": 7171,
      "cere": 7172,
      "dive": 7173,
      "daugh": 7174,
      "fers": 7175,
      "gir": 7176,
      "hint": 7177,
      "hab": 7178,
      "harm": 7179,
      "jack": 7180,
      "knew": 7181,
      "kins": 7182,
      "marr": 7183,
      "nice": 7184,
      "pig": 7185,
      "pum": 7186,
      "rand": 7187,
      "rick": 7188,
      "sport": 7189,
      "sions": 7190,
      "tact": 7191,
      "vide": 7192,
      "inf": 7193,
      "erto": 7194,
      "erly": 7195,
      "analy": 7196,
      "rec": 7197,
      "aton": 7198,
      "arrest": 7199,
      "iti": 7200,
      "itted": 7201,
      "entit": 7202,
      "issi": 7203,
      "aser": 7204,
      "rolled": 7205,
      "rochemical": 7206,
      "robust": 7207,
      "unction": 7208,
      "unists": 7209,
      "univers": 7210,
      "accus": 7211,
      "accommod": 7212,
      "forfe": 7213,
      "aded": 7214,
      "adopt": 7215,
      "bells": 7216,
      "irth": 7217,
      "pros": 7218,
      "train": 7219,
      "shad": 7220,
      "device": 7221,
      "mored": 7222,
      "tells": 7223,
      "quit": 7224,
      "liances": 7225,
      "haz": 7226,
      "strict": 7227,
      "cohol": 7228,
      "emina": 7229,
      "acters": 7230,
      "iffer": 7231,
      "iston": 7232,
      "keley": 7233,
      "udson": 7234,
      "indire": 7235,
      "cry": 7236,
      "viation": 7237,
      "nos": 7238,
      "somebody": 7239,
      "explos": 7240,
      "render": 7241,
      "content": 7242,
      "decreas": 7243,
      "aval": 7244,
      "eful": 7245,
      "surplus": 7246,
      "bases": 7247,
      "cler": 7248,
      "ministers": 7249,
      "orton": 7250,
      "aftermath": 7251,
      "seller": 7252,
      "Unlike": 7253,
      "economics": 7254,
      "Deloit": 7255,
      "industrials": 7256,
      "officially": 7257,
      "array": 7258,
      "financed": 7259,
      "taxable": 7260,
      "callable": 7261,
      "factories": 7262,
      "medic": 7263,
      "chequer": 7264,
      "guild": 7265,
      "sheets": 7266,
      "reality": 7267,
      "manages": 7268,
      "employs": 7269,
      "ully": 7270,
      "reportedly": 7271,
      "considerably": 7272,
      "engers": 7273,
      "shortage": 7274,
      "cargo": 7275,
      "privat": 7276,
      "hoping": 7277,
      "involves": 7278,
      "indications": 7279,
      "divided": 7280,
      "slowly": 7281,
      "Proceed": 7282,
      "Allen": 7283,
      "risky": 7284,
      "moral": 7285,
      "ERS": 7286,
      "ORT": 7287,
      "packaged": 7288,
      "stepped": 7289,
      "flood": 7290,
      "Hospital": 7291,
      "adjustments": 7292,
      "introduction": 7293,
      "lackluster": 7294,
      "engineers": 7295,
      "rallied": 7296,
      "associate": 7297,
      "associates": 7298,
      "succeeding": 7299,
      "boosting": 7300,
      "Swed": 7301,
      "Wedtech": 7302,
      "secure": 7303,
      "charities": 7304,
      "feeling": 7305,
      "distur": 7306,
      "roller": 7307,
      "rolling": 7308,
      "typical": 7309,
      "Berkeley": 7310,
      "Telegraph": 7311,
      "responding": 7312,
      "treaty": 7313,
      "graphic": 7314,
      "killing": 7315,
      "promoting": 7316,
      "Mexican": 7317,
      "Harvard": 7318,
      "catastroph": 7319,
      "licens": 7320,
      "licenses": 7321,
      "investigating": 7322,
      "seasonally": 7323,
      "hybrid": 7324,
      "exceeded": 7325,
      "penalties": 7326,
      "cleanup": 7327,
      "resolve": 7328,
      "holiday": 7329,
      "worries": 7330,
      "recognized": 7331,
      "barriers": 7332,
      "document": 7333,
      "departments": 7334,
      "matching": 7335,
      "tourists": 7336,
      "referred": 7337,
      "Imperial": 7338,
      "assumption": 7339,
      "conceded": 7340,
      "eyes": 7341,
      "aspects": 7342,
      "rocket": 7343,
      "diversified": 7344,
      "Samuel": 7345,
      "intelligence": 7346,
      "prospective": 7347,
      "bearish": 7348,
      "spinoff": 7349,
      "cyclical": 7350,
      "fortunately": 7351,
      "scores": 7352,
      "heimer": 7353,
      "monitoring": 7354,
      "fleet": 7355,
      "jurors": 7356,
      "dangerous": 7357,
      "Raymond": 7358,
      "subscrib": 7359,
      "appreciation": 7360,
      "Society": 7361,
      "Budget": 7362,
      "complicated": 7363,
      "Area": 7364,
      "Turkey": 7365,
      "honor": 7366,
      "comfortable": 7367,
      "Honda": 7368,
      "professionals": 7369,
      "Integr": 7370,
      "Warsaw": 7371,
      "treasurer": 7372,
      "convinced": 7373,
      "Craig": 7374,
      "Jeffrey": 7375,
      "Tandy": 7376,
      "disclosure": 7377,
      "Katz": 7378,
      "absolute": 7379,
      "indictment": 7380,
      "Palestin": 7381,
      "Achenbaum": 7382,
      "Pictures": 7383,
      "Spanish": 7384,
      "CFCs": 7385,
      "indirect": 7386,
      "Deloitte": 7387,
      "Bever": 7388,
      "Cz": 7389,
      "Dan": 7390,
      "Dem": 7391,
      "EL": 7392,
      "Fer": 7393,
      "Hal": 7394,
      "Hit": 7395,
      "Je": 7396,
      "Kas": 7397,
      "Kem": 7398,
      "Kod": 7399,
      "Lake": 7400,
      "Line": 7401,
      "Lines": 7402,
      "Mills": 7403,
      "Municipal": 7404,
      "Nest": 7405,
      "Nev": 7406,
      "Oly": 7407,
      "Okla": 7408,
      "Pas": 7409,
      "Ref": 7410,
      "Rena": 7411,
      "Rowe": 7412,
      "Sk": 7413,
      "Sur": 7414,
      "Sull": 7415,
      "Ta": 7416,
      "Total": 7417,
      "Vest": 7418,
      "Vict": 7419,
      "bors": 7420,
      "bird": 7421,
      "dling": 7422,
      "flying": 7423,
      "gart": 7424,
      "hun": 7425,
      "hang": 7426,
      "hiring": 7427,
      "iber": 7428,
      "ikes": 7429,
      "je": 7430,
      "oing": 7431,
      "pour": 7432,
      "rance": 7433,
      "rarely": 7434,
      "sac": 7435,
      "tank": 7436,
      "wire": 7437,
      "winter": 7438,
      "xy": 7439,
      "zens": 7440,
      "insisted": 7441,
      "angry": 7442,
      "analysis": 7443,
      "repurchase": 7444,
      "orn": 7445,
      "orient": 7446,
      "aters": 7447,
      "alk": 7448,
      "allies": 7449,
      "tower": 7450,
      "isol": 7451,
      "omerate": 7452,
      "icy": 7453,
      "icam": 7454,
      "icop": 7455,
      "sectors": 7456,
      "heel": 7457,
      "heuser": 7458,
      "leaves": 7459,
      "roof": 7460,
      "unclear": 7461,
      "unusually": 7462,
      "polls": 7463,
      "powers": 7464,
      "ches": 7465,
      "dol": 7466,
      "interv": 7467,
      "urally": 7468,
      "belief": 7469,
      "contem": 7470,
      "congl": 7471,
      "condem": 7472,
      "propri": 7473,
      "proportion": 7474,
      "tray": 7475,
      "saving": 7476,
      "cel": 7477,
      "shir": 7478,
      "resort": 7479,
      "deleg": 7480,
      "liabilities": 7481,
      "frustr": 7482,
      "reek": 7483,
      "aps": 7484,
      "ounced": 7485,
      "sixties": 7486,
      "duck": 7487,
      "coach": 7488,
      "ivan": 7489,
      "iful": 7490,
      "ops": 7491,
      "opponents": 7492,
      "aux": 7493,
      "marketers": 7494,
      "grants": 7495,
      "stored": 7496,
      "buo": 7497,
      "buff": 7498,
      "merged": 7499,
      "afters": 7500,
      "otherwise": 7501,
      "Composite": 7502,
      "blank": 7503,
      "blamed": 7504,
      "diss": 7505,
      "discour": 7506,
      "ignoring": 7507,
      "achment": 7508,
      "partial": 7509,
      "expires": 7510,
      "compound": 7511,
      "meg": 7512,
      "boss": 7513,
      "Anheuser": 7514,
      "isher": 7515,
      "ishita": 7516,
      "salary": 7517,
      "retion": 7518,
      "anywhere": 7519,
      "surgery": 7520,
      "clin": 7521,
      "Chan": 7522,
      "Chand": 7523,
      "owning": 7524,
      "proved": 7525,
      "substitut": 7526,
      "submitted": 7527,
      "presidential": 7528,
      "adeau": 7529,
      "icks": 7530,
      "flaw": 7531,
      "Depos": 7532,
      "philo": 7533,
      "Exchequer": 7534,
      "ledge": 7535,
      "registr": 7536,
      "ohl": 7537,
      "ptions": 7538,
      "transl": 7539,
      "guess": 7540,
      "deriv": 7541,
      "equities": 7542,
      "requiring": 7543,
      "knowledge": 7544,
      "Arm": 7545,
      "Army": 7546,
      "yielding": 7547,
      "amps": 7548,
      "creation": 7549,
      "ilize": 7550,
      "turnaround": 7551,
      "receipts": 7552,
      "shipped": 7553,
      "testimony": 7554,
      "Merk": 7555,
      "Geneva": 7556,
      "detect": 7557,
      "Tosh": 7558,
      "solic": 7559,
      "corrupt": 7560,
      "Finally": 7561,
      "finds": 7562,
      "magn": 7563,
      "productivity": 7564,
      "Mah": 7565,
      "Maiden": 7566,
      "Pharmaceutical": 7567,
      "failures": 7568,
      "attribut": 7569,
      "activists": 7570,
      "Minnes": 7571,
      "planner": 7572,
      "deliber": 7573,
      "negotiate": 7574,
      "restructure": 7575,
      "Richmond": 7576,
      "protected": 7577,
      "floating": 7578,
      "sitting": 7579,
      "Davis": 7580,
      "hurricane": 7581,
      "logic": 7582,
      "logist": 7583,
      "appointment": 7584,
      "scrut": 7585,
      "circul": 7586,
      "mediate": 7587,
      "talked": 7588,
      "Clark": 7589,
      "homa": 7590,
      "blocks": 7591,
      "Cambod": 7592,
      "Issu": 7593,
      "picking": 7594,
      "Plant": 7595,
      "favorite": 7596,
      "Earnings": 7597,
      "strategist": 7598,
      "traditionally": 7599,
      "Morishita": 7600,
      "HealthVest": 7601,
      "Motorola": 7602,
      "promotions": 7603,
      "commodities": 7604,
      "Buick": 7605,
      "encouraging": 7606,
      "pleased": 7607,
      "tracks": 7608,
      "hypo": 7609,
      "smooth": 7610,
      "inventory": 7611,
      "partnerships": 7612,
      "Stras": 7613,
      "resolution": 7614,
      "functions": 7615,
      "absence": 7616,
      "recognize": 7617,
      "UNT": 7618,
      "precious": 7619,
      "franchisees": 7620,
      "ramento": 7621,
      "Litigation": 7622,
      "injuries": 7623,
      "referring": 7624,
      "hospitals": 7625,
      "Similar": 7626,
      "invited": 7627,
      "installed": 7628,
      "satisfaction": 7629,
      "consolidated": 7630,
      "apartment": 7631,
      "tti": 7632,
      "Garcia": 7633,
      "arguments": 7634,
      "squeezed": 7635,
      "Rubicam": 7636,
      "advocates": 7637,
      "enhance": 7638,
      "bargain": 7639,
      "Bancorp": 7640,
      "dumped": 7641,
      "banned": 7642,
      "conflict": 7643,
      "sweeping": 7644,
      "drilling": 7645,
      "Director": 7646,
      "precise": 7647,
      "Revco": 7648,
      "pattern": 7649,
      "Mason": 7650,
      "Operating": 7651,
      "tremend": 7652,
      "ioneer": 7653,
      "judgment": 7654,
      "Puerto": 7655,
      "fabric": 7656,
      "scheme": 7657,
      "penny": 7658,
      "discretion": 7659,
      "Authority": 7660,
      "Falcon": 7661,
      "formula": 7662,
      "fierce": 7663,
      "vulnerable": 7664,
      "Rouge": 7665,
      "conspiracy": 7666,
      "pieces": 7667,
      "definitely": 7668,
      "Sacramento": 7669,
      "Urban": 7670,
      "sizable": 7671,
      "Lotus": 7672,
      "Mikhail": 7673,
      "Zealand": 7674,
      "hazard": 7675,
      "Proceeds": 7676,
      "Kemper": 7677,
      "Olymp": 7678,
      "Oklahoma": 7679,
      "Renaissance": 7680,
      "Sullivan": 7681,
      "Victor": 7682,
      "oriented": 7683,
      "conglomerate": 7684,
      "philosoph": 7685,
      "Maidenform": 7686,
      "Minnesota": 7687,
      "Ciba": 7688,
      "Dent": 7689,
      "Dod": 7690,
      "Emer": 7691,
      "Edel": 7692,
      "Fl": 7693,
      "FUN": 7694,
      "God": 7695,
      "Gerald": 7696,
      "Kh": 7697,
      "Kur": 7698,
      "Kir": 7699,
      "Lane": 7700,
      "Manc": 7701,
      "Nab": 7702,
      "Pop": 7703,
      "Rel": 7704,
      "Rose": 7705,
      "Rico": 7706,
      "Son": 7707,
      "Shop": 7708,
      "Saudi": 7709,
      "Tay": 7710,
      "Uta": 7711,
      "Win": 7712,
      "Wright": 7713,
      "bay": 7714,
      "bike": 7715,
      "cotton": 7716,
      "dor": 7717,
      "dark": 7718,
      "dimin": 7719,
      "diamond": 7720,
      "eu": 7721,
      "fty": 7722,
      "hl": 7723,
      "iqu": 7724,
      "iere": 7725,
      "jet": 7726,
      "jol": 7727,
      "myst": 7728,
      "oll": 7729,
      "pino": 7730,
      "rational": 7731,
      "sag": 7732,
      "sick": 7733,
      "swell": 7734,
      "tab": 7735,
      "tical": 7736,
      "tiny": 7737,
      "va": 7738,
      "wars": 7739,
      "wins": 7740,
      "inject": 7741,
      "infect": 7742,
      "independence": 7743,
      "rely": 7744,
      "reacted": 7745,
      "reporter": 7746,
      "rebels": 7747,
      "thes": 7748,
      "orter": 7749,
      "stolen": 7750,
      "alcohol": 7751,
      "itt": 7752,
      "outr": 7753,
      "toll": 7754,
      "assumed": 7755,
      "hefty": 7756,
      "eter": 7757,
      "ette": 7758,
      "ids": 7759,
      "idav": 7760,
      "idarity": 7761,
      "leans": 7762,
      "uncertain": 7763,
      "accr": 7764,
      "adap": 7765,
      "admit": 7766,
      "eck": 7767,
      "chunk": 7768,
      "loose": 7769,
      "excessive": 7770,
      "conce": 7771,
      "constr": 7772,
      "contest": 7773,
      "conversion": 7774,
      "confront": 7775,
      "amin": 7776,
      "aming": 7777,
      "cean": 7778,
      "shed": 7779,
      "portray": 7780,
      "defer": 7781,
      "depressed": 7782,
      "quakes": 7783,
      "iler": 7784,
      "strikes": 7785,
      "oting": 7786,
      "coa": 7787,
      "emissions": 7788,
      "eligible": 7789,
      "neth": 7790,
      "ancers": 7791,
      "possess": 7792,
      "awn": 7793,
      "bless": 7794,
      "crative": 7795,
      "achi": 7796,
      "compiled": 7797,
      "mega": 7798,
      "bok": 7799,
      "losers": 7800,
      "Anth": 7801,
      "Anton": 7802,
      "fines": 7803,
      "rette": 7804,
      "basically": 7805,
      "Stat": 7806,
      "setback": 7807,
      "elect": 7808,
      "Weis": 7809,
      "pays": 7810,
      "economies": 7811,
      "Dell": 7812,
      "command": 7813,
      "tembl": 7814,
      "Boes": 7815,
      "enson": 7816,
      "volunt": 7817,
      "serving": 7818,
      "Conserv": 7819,
      "Anders": 7820,
      "desper": 7821,
      "transition": 7822,
      "slum": 7823,
      "parov": 7824,
      "Alto": 7825,
      "Colle": 7826,
      "developer": 7827,
      "advis": 7828,
      "hole": 7829,
      "Graw": 7830,
      "useful": 7831,
      "Ark": 7832,
      "announcing": 7833,
      "liter": 7834,
      "structures": 7835,
      "matched": 7836,
      "Southeast": 7837,
      "interstate": 7838,
      "facts": 7839,
      "Mercury": 7840,
      "falls": 7841,
      "McGraw": 7842,
      "solutions": 7843,
      "carpet": 7844,
      "periods": 7845,
      "ennial": 7846,
      "denies": 7847,
      "regulated": 7848,
      "affidav": 7849,
      "slowed": 7850,
      "Cola": 7851,
      "warm": 7852,
      "Mather": 7853,
      "institute": 7854,
      "benefited": 7855,
      "passenger": 7856,
      "north": 7857,
      "visited": 7858,
      "locked": 7859,
      "weakening": 7860,
      "INTER": 7861,
      "skin": 7862,
      "Tokyu": 7863,
      "happening": 7864,
      "broadly": 7865,
      "budgets": 7866,
      "confusion": 7867,
      "locations": 7868,
      "violent": 7869,
      "kinds": 7870,
      "supervis": 7871,
      "supercondu": 7872,
      "suggestions": 7873,
      "targeted": 7874,
      "minimal": 7875,
      "Delta": 7876,
      "characters": 7877,
      "campaigns": 7878,
      "COUNT": 7879,
      "interviewed": 7880,
      "liquor": 7881,
      "defined": 7882,
      "graphy": 7883,
      "graphics": 7884,
      "discounting": 7885,
      "lucrative": 7886,
      "Christian": 7887,
      "settling": 7888,
      "Buying": 7889,
      "catalog": 7890,
      "regarded": 7891,
      "eliminated": 7892,
      "participating": 7893,
      "View": 7894,
      "holm": 7895,
      "Milan": 7896,
      "attacks": 7897,
      "Metropolitan": 7898,
      "Bradstreet": 7899,
      "application": 7900,
      "affiliates": 7901,
      "fueled": 7902,
      "survive": 7903,
      "calculations": 7904,
      "bullish": 7905,
      "responsibilities": 7906,
      "transferred": 7907,
      "Wathen": 7908,
      "Goodson": 7909,
      "drinking": 7910,
      "surprisingly": 7911,
      "racial": 7912,
      "animal": 7913,
      "parking": 7914,
      "valuable": 7915,
      "initiative": 7916,
      "lifted": 7917,
      "assessment": 7918,
      "iption": 7919,
      "Magaz": 7920,
      "Appropri": 7921,
      "shelf": 7922,
      "Kenneth": 7923,
      "Solidarity": 7924,
      "Electronics": 7925,
      "psychology": 7926,
      "Belg": 7927,
      "couples": 7928,
      "persuade": 7929,
      "Commodity": 7930,
      "Ralph": 7931,
      "consequences": 7932,
      "absorb": 7933,
      "female": 7934,
      "Jenrette": 7935,
      "reveal": 7936,
      "Seagram": 7937,
      "plummeted": 7938,
      "Dynamics": 7939,
      "newsletter": 7940,
      "distinct": 7941,
      "striking": 7942,
      "surrounding": 7943,
      "Coleman": 7944,
      "impeachment": 7945,
      "approximately": 7946,
      "Fidelity": 7947,
      "emotional": 7948,
      "Lebanon": 7949,
      "Cowboys": 7950,
      "Diego": 7951,
      "subscribers": 7952,
      "Czech": 7953,
      "Hitachi": 7954,
      "Kasparov": 7955,
      "Nestle": 7956,
      "aftersho": 7957,
      "Merkur": 7958,
      "FUNDS": 7959,
      "Khmer": 7960,
      "Nabisco": 7961,
      "Taylor": 7962,
      "Utah": 7963,
      "Appropriations": 7964,
      "Amo": 7965,
      "Abr": 7966,
      "Aff": 7967,
      "Bir": 7968,
      "Barr": 7969,
      "Bull": 7970,
      "BAN": 7971,
      "Cy": 7972,
      "Cro": 7973,
      "Carr": 7974,
      "Darman": 7975,
      "EM": 7976,
      "Es": 7977,
      "Ell": 7978,
      "Fle": 7979,
      "Fam": 7980,
      "Femina": 7981,
      "Gil": 7982,
      "Hi": 7983,
      "Jay": 7984,
      "Kim": 7985,
      "LA": 7986,
      "Let": 7987,
      "Lind": 7988,
      "Mut": 7989,
      "Na": 7990,
      "Os": 7991,
      "Oppen": 7992,
      "PCs": 7993,
      "Som": 7994,
      "Sometimes": 7995,
      "Va": 7996,
      "Wat": 7997,
      "Zur": 7998,
      "bother": 7999,
      "bomb": 8000,
      "birth": 8001,
      "dated": 8002,
      "dinner": 8003,
      "ebok": 8004,
      "fy": 8005,
      "fro": 8006,
      "fman": 8007,
      "fault": 8008,
      "gus": 8009,
      "golf": 8010,
      "giants": 8011,
      "hat": 8012,
      "hide": 8013,
      "hero": 8014,
      "iety": 8015,
      "lights": 8016,
      "mers": 8017,
      "mel": 8018,
      "mush": 8019,
      "nur": 8020,
      "rural": 8021,
      "song": 8022,
      "sink": 8023,
      "sending": 8024,
      "uso": 8025,
      "uous": 8026,
      "vas": 8027,
      "whel": 8028,
      "waves": 8029,
      "zheim": 8030,
      "inet": 8031,
      "refr": 8032,
      "relie": 8033,
      "removed": 8034,
      "restored": 8035,
      "enact": 8036,
      "enable": 8037,
      "stuck": 8038,
      "armed": 8039,
      "isan": 8040,
      "sea": 8041,
      "idle": 8042,
      "leap": 8043,
      "pock": 8044,
      "chi": 8045,
      "dore": 8046,
      "lowest": 8047,
      "agger": 8048,
      "arsen": 8049,
      "ima": 8050,
      "consort": 8051,
      "probe": 8052,
      "whatever": 8053,
      "amaz": 8054,
      "shif": 8055,
      "demo": 8056,
      "debut": 8057,
      "liers": 8058,
      "liable": 8059,
      "ows": 8060,
      "Information": 8061,
      "aked": 8062,
      "maneu": 8063,
      "haust": 8064,
      "strongest": 8065,
      "apples": 8066,
      "astic": 8067,
      "cope": 8068,
      "cooper": 8069,
      "cocoa": 8070,
      "actor": 8071,
      "therlands": 8072,
      "enda": 8073,
      "ela": 8074,
      "antly": 8075,
      "auld": 8076,
      "upset": 8077,
      "grim": 8078,
      "grip": 8079,
      "istol": 8080,
      "odds": 8081,
      "acks": 8082,
      "ieux": 8083,
      "noting": 8084,
      "notably": 8085,
      "inev": 8086,
      "pelled": 8087,
      "udes": 8088,
      "crum": 8089,
      "cryst": 8090,
      "ightened": 8091,
      "channel": 8092,
      "prestig": 8093,
      "ideal": 8094,
      "counted": 8095,
      "airport": 8096,
      "anyway": 8097,
      "surve": 8098,
      "ileo": 8099,
      "highs": 8100,
      "classi": 8101,
      "buys": 8102,
      "mines": 8103,
      "encing": 8104,
      "understanding": 8105,
      "understood": 8106,
      "links": 8107,
      "Fran": 8108,
      "profile": 8109,
      "Della": 8110,
      "Reebok": 8111,
      "capped": 8112,
      "Asset": 8113,
      "ifications": 8114,
      "Consider": 8115,
      "ppi": 8116,
      "evening": 8117,
      "relax": 8118,
      "paralle": 8119,
      "parliament": 8120,
      "spoke": 8121,
      "valid": 8122,
      "Alaska": 8123,
      "clothing": 8124,
      "landing": 8125,
      "Banks": 8126,
      "BankAmerica": 8127,
      "Grace": 8128,
      "Graph": 8129,
      "useum": 8130,
      "chosen": 8131,
      "Bee": 8132,
      "presented": 8133,
      "ilian": 8134,
      "Stockholm": 8135,
      "maturing": 8136,
      "symp": 8137,
      "technologies": 8138,
      "Treasurys": 8139,
      "Merieux": 8140,
      "Petr": 8141,
      "solvent": 8142,
      "solution": 8143,
      "privile": 8144,
      "writers": 8145,
      "carefully": 8146,
      "Parliament": 8147,
      "corre": 8148,
      "Probe": 8149,
      "Decker": 8150,
      "depends": 8151,
      "enterprises": 8152,
      "Amex": 8153,
      "attracting": 8154,
      "passengers": 8155,
      "swift": 8156,
      "steadily": 8157,
      "elderly": 8158,
      "supplier": 8159,
      "Advis": 8160,
      "patient": 8161,
      "seasonal": 8162,
      "Orleans": 8163,
      "representative": 8164,
      "listen": 8165,
      "actively": 8166,
      "explaining": 8167,
      "violation": 8168,
      "violated": 8169,
      "employer": 8170,
      "freeway": 8171,
      "emerged": 8172,
      "emerging": 8173,
      "engineered": 8174,
      "Hugh": 8175,
      "supercomputer": 8176,
      "combine": 8177,
      "Delicious": 8178,
      "charity": 8179,
      "films": 8180,
      "Play": 8181,
      "Netherlands": 8182,
      "diag": 8183,
      "appearance": 8184,
      "discounts": 8185,
      "Charlot": 8186,
      "distributor": 8187,
      "casualty": 8188,
      "rejection": 8189,
      "improving": 8190,
      "Healthcare": 8191,
      "predicts": 8192,
      "promotional": 8193,
      "acceptable": 8194,
      "ART": 8195,
      "prepare": 8196,
      "featuring": 8197,
      "Greenville": 8198,
      "learning": 8199,
      "investigations": 8200,
      "smoke": 8201,
      "contribute": 8202,
      "contribution": 8203,
      "tumor": 8204,
      "wrongdoing": 8205,
      "Louisiana": 8206,
      "Palo": 8207,
      "describ": 8208,
      "maturities": 8209,
      "multiple": 8210,
      "wider": 8211,
      "stemming": 8212,
      "instrument": 8213,
      "refining": 8214,
      "Scient": 8215,
      "Working": 8216,
      "Edwards": 8217,
      "establishment": 8218,
      "Frederick": 8219,
      "baskets": 8220,
      "relationships": 8221,
      "Mississi": 8222,
      "immune": 8223,
      "objectives": 8224,
      "Blum": 8225,
      "struggle": 8226,
      "electricity": 8227,
      "Previously": 8228,
      "Montreal": 8229,
      "Sandinist": 8230,
      "slashed": 8231,
      "basketball": 8232,
      "windows": 8233,
      "battery": 8234,
      "bridges": 8235,
      "Members": 8236,
      "repeatedly": 8237,
      "Denver": 8238,
      "Lyon": 8239,
      "toxic": 8240,
      "Philippine": 8241,
      "Semel": 8242,
      "Further": 8243,
      "pregnant": 8244,
      "NATO": 8245,
      "implications": 8246,
      "Galileo": 8247,
      "assault": 8248,
      "COMP": 8249,
      "Advertising": 8250,
      "inspired": 8251,
      "respectively": 8252,
      "Finnish": 8253,
      "Filipino": 8254,
      "NEW": 8255,
      "diluted": 8256,
      "accomplish": 8257,
      "concessions": 8258,
      "Education": 8259,
      "Nicholas": 8260,
      "Dennis": 8261,
      "Nobody": 8262,
      "Integrated": 8263,
      "absolutely": 8264,
      "Kodak": 8265,
      "dissident": 8266,
      "Issues": 8267,
      "Straszheim": 8268,
      "tremendous": 8269,
      "Amoco": 8270,
      "Oppenheimer": 8271,
      "Mississippi": 8272,
      "Av": 8273,
      "Avery": 8274,
      "Ball": 8275,
      "Bork": 8276,
      "BOR": 8277,
      "Fiat": 8278,
      "Gould": 8279,
      "Gren": 8280,
      "Given": 8281,
      "Hoff": 8282,
      "Hop": 8283,
      "Kemp": 8284,
      "Lion": 8285,
      "Lilly": 8286,
      "Mir": 8287,
      "Mips": 8288,
      "Nip": 8289,
      "Nearly": 8290,
      "PA": 8291,
      "PO": 8292,
      "Pen": 8293,
      "Pay": 8294,
      "RA": 8295,
      "Rail": 8296,
      "SO": 8297,
      "Sin": 8298,
      "Sports": 8299,
      "Tower": 8300,
      "Uno": 8301,
      "Uph": 8302,
      "Wy": 8303,
      "Ward": 8304,
      "Xero": 8305,
      "aides": 8306,
      "bold": 8307,
      "caf": 8308,
      "cumul": 8309,
      "fits": 8310,
      "fus": 8311,
      "fend": 8312,
      "gau": 8313,
      "latter": 8314,
      "mart": 8315,
      "nest": 8316,
      "pess": 8317,
      "plot": 8318,
      "plex": 8319,
      "pestic": 8320,
      "pencil": 8321,
      "ror": 8322,
      "ries": 8323,
      "sight": 8324,
      "tire": 8325,
      "uce": 8326,
      "wors": 8327,
      "wary": 8328,
      "zing": 8329,
      "ini": 8330,
      "insu": 8331,
      "thick": 8332,
      "remind": 8333,
      "ensi": 8334,
      "enius": 8335,
      "thed": 8336,
      "atmo": 8337,
      "stages": 8338,
      "aron": 8339,
      "army": 8340,
      "edith": 8341,
      "alive": 8342,
      "itory": 8343,
      "llate": 8344,
      "isons": 8345,
      "asy": 8346,
      "heating": 8347,
      "etta": 8348,
      "lester": 8349,
      "rot": 8350,
      "unning": 8351,
      "unification": 8352,
      "adverse": 8353,
      "adults": 8354,
      "chrom": 8355,
      "dozens": 8356,
      "utr": 8357,
      "bearing": 8358,
      "express": 8359,
      "exposed": 8360,
      "excell": 8361,
      "excluding": 8362,
      "exhaust": 8363,
      "impose": 8364,
      "consci": 8365,
      "protests": 8366,
      "redemption": 8367,
      "amped": 8368,
      "unders": 8369,
      "sharing": 8370,
      "pork": 8371,
      "abrupt": 8372,
      "mood": 8373,
      "quote": 8374,
      "liver": 8375,
      "lived": 8376,
      "fron": 8377,
      "Ingers": 8378,
      "plain": 8379,
      "usal": 8380,
      "ialized": 8381,
      "apar": 8382,
      "appl": 8383,
      "otic": 8384,
      "ulated": 8385,
      "endor": 8386,
      "endors": 8387,
      "articles": 8388,
      "overcome": 8389,
      "overwhel": 8390,
      "ively": 8391,
      "opposite": 8392,
      "upper": 8393,
      "upscale": 8394,
      "grid": 8395,
      "gray": 8396,
      "prescr": 8397,
      "pressive": 8398,
      "butter": 8399,
      "notion": 8400,
      "notice": 8401,
      "blast": 8402,
      "disco": 8403,
      "disasters": 8404,
      "diseases": 8405,
      "ignored": 8406,
      "compliance": 8407,
      "rental": 8408,
      "prehensive": 8409,
      "meat": 8410,
      "contended": 8411,
      "ept": 8412,
      "izz": 8413,
      "erals": 8414,
      "surface": 8415,
      "Where": 8416,
      "suburban": 8417,
      "drought": 8418,
      "bondholders": 8419,
      "Week": 8420,
      "Deb": 8421,
      "executed": 8422,
      "Reyn": 8423,
      "Book": 8424,
      "formally": 8425,
      "capable": 8426,
      "regions": 8427,
      "regime": 8428,
      "obed": 8429,
      "longtime": 8430,
      "longstanding": 8431,
      "struck": 8432,
      "specify": 8433,
      "Andrew": 8434,
      "transplants": 8435,
      "leads": 8436,
      "cheating": 8437,
      "Albert": 8438,
      "Alfred": 8439,
      "guest": 8440,
      "Roe": 8441,
      "Cos": 8442,
      "Coca": 8443,
      "signals": 8444,
      "heading": 8445,
      "lately": 8446,
      "publication": 8447,
      "publicity": 8448,
      "advances": 8449,
      "insky": 8450,
      "choices": 8451,
      "cholester": 8452,
      "ibb": 8453,
      "Eurocom": 8454,
      "remainder": 8455,
      "ilized": 8456,
      "Interpublic": 8457,
      "receiv": 8458,
      "receiving": 8459,
      "creditor": 8460,
      "League": 8461,
      "Princ": 8462,
      "interim": 8463,
      "interpre": 8464,
      "interbank": 8465,
      "competitor": 8466,
      "Manila": 8467,
      "researcher": 8468,
      "residential": 8469,
      "unication": 8470,
      "supporting": 8471,
      "Meredith": 8472,
      "clearance": 8473,
      "Salv": 8474,
      "hardware": 8475,
      "automobile": 8476,
      "amounted": 8477,
      "earthquakes": 8478,
      "Steve": 8479,
      "borough": 8480,
      "completion": 8481,
      "Finland": 8482,
      "Provig": 8483,
      "thorough": 8484,
      "benefici": 8485,
      "advertise": 8486,
      "Investments": 8487,
      "visions": 8488,
      "posting": 8489,
      "designer": 8490,
      "ERT": 8491,
      "burst": 8492,
      "sentence": 8493,
      "predec": 8494,
      "listing": 8495,
      "rumored": 8496,
      "broadcasting": 8497,
      "adjusters": 8498,
      "adjustment": 8499,
      "sooner": 8500,
      "abortions": 8501,
      "qualify": 8502,
      "settlements": 8503,
      "nearby": 8504,
      "favored": 8505,
      "violate": 8506,
      "violence": 8507,
      "roads": 8508,
      "ONE": 8509,
      "suggesting": 8510,
      "relev": 8511,
      "discussion": 8512,
      "threatening": 8513,
      "blocking": 8514,
      "worthy": 8515,
      "Plan": 8516,
      "Television": 8517,
      "affecting": 8518,
      "Value": 8519,
      "climate": 8520,
      "radiation": 8521,
      "bonus": 8522,
      "bonuses": 8523,
      "spirit": 8524,
      "Scot": 8525,
      "Jerry": 8526,
      "galvan": 8527,
      "attered": 8528,
      "investigators": 8529,
      "popularity": 8530,
      "bottle": 8531,
      "exception": 8532,
      "doubts": 8533,
      "Louisville": 8534,
      "ultimate": 8535,
      "Else": 8536,
      "momentum": 8537,
      "integration": 8538,
      "Duf": 8539,
      "stemmed": 8540,
      "Parker": 8541,
      "conviction": 8542,
      "injunction": 8543,
      "equaling": 8544,
      "vacation": 8545,
      "connected": 8546,
      "Brooklyn": 8547,
      "tickets": 8548,
      "dominant": 8549,
      "Bennett": 8550,
      "Economists": 8551,
      "coalition": 8552,
      "withdrawal": 8553,
      "consolidation": 8554,
      "truly": 8555,
      "ogue": 8556,
      "utsche": 8557,
      "meantime": 8558,
      "Disney": 8559,
      "crowd": 8560,
      "iatric": 8561,
      "Vermont": 8562,
      "seeds": 8563,
      "sparked": 8564,
      "banning": 8565,
      "sweetened": 8566,
      "dialogue": 8567,
      "uminum": 8568,
      "Bernstein": 8569,
      "Philippines": 8570,
      "Silicon": 8571,
      "fluent": 8572,
      "Connaught": 8573,
      "Daily": 8574,
      "skeptical": 8575,
      "tentatively": 8576,
      "laptop": 8577,
      "champion": 8578,
      "perception": 8579,
      "Fireman": 8580,
      "Teddy": 8581,
      "faith": 8582,
      "Signal": 8583,
      "constantly": 8584,
      "Madison": 8585,
      "Rudman": 8586,
      "ylene": 8587,
      "legitimate": 8588,
      "magnetic": 8589,
      "Foundation": 8590,
      "furniture": 8591,
      "ozone": 8592,
      "explanation": 8593,
      "incurred": 8594,
      "McDonough": 8595,
      "Agriculture": 8596,
      "Private": 8597,
      "Fresenius": 8598,
      "Palestinian": 8599,
      "buoy": 8600,
      "Chandler": 8601,
      "registration": 8602,
      "Anthony": 8603,
      "Statistics": 8604,
      "Weisfield": 8605,
      "Andersson": 8606,
      "advisory": 8607,
      "Mutual": 8608,
      "Franco": 8609,
      "Graphics": 8610,
      "Charlotte": 8611,
      "Nippon": 8612,
      "Xerox": 8613,
      "pessim": 8614,
      "insulin": 8615,
      "atmosp": 8616,
      "conscious": 8617,
      "Ingersoll": 8618,
      "Reynolds": 8619,
      "cholesterol": 8620,
      "Provigo": 8621,
      "Along": 8622,
      "Bou": 8623,
      "Bass": 8624,
      "Benson": 8625,
      "Cle": 8626,
      "Cop": 8627,
      "Dom": 8628,
      "Daly": 8629,
      "Event": 8630,
      "Fab": 8631,
      "Few": 8632,
      "Ful": 8633,
      "Hudson": 8634,
      "Iron": 8635,
      "Jeff": 8636,
      "Kar": 8637,
      "Lone": 8638,
      "Laff": 8639,
      "Larry": 8640,
      "Mul": 8641,
      "Maine": 8642,
      "Nam": 8643,
      "Nel": 8644,
      "Pa": 8645,
      "Pel": 8646,
      "Ran": 8647,
      "Rat": 8648,
      "Rid": 8649,
      "Rights": 8650,
      "Rican": 8651,
      "SH": 8652,
      "Sum": 8653,
      "Sug": 8654,
      "Ship": 8655,
      "Sons": 8656,
      "Scribe": 8657,
      "Tou": 8658,
      "Tak": 8659,
      "Temp": 8660,
      "Yale": 8661,
      "afr": 8662,
      "cers": 8663,
      "cart": 8664,
      "cure": 8665,
      "cular": 8666,
      "cultural": 8667,
      "dere": 8668,
      "damp": 8669,
      "fan": 8670,
      "fares": 8671,
      "fancy": 8672,
      "ias": 8673,
      "ifies": 8674,
      "iScribe": 8675,
      "kem": 8676,
      "lunch": 8677,
      "lucky": 8678,
      "mou": 8679,
      "mild": 8680,
      "ni": 8681,
      "nights": 8682,
      "phase": 8683,
      "peco": 8684,
      "ray": 8685,
      "rif": 8686,
      "rera": 8687,
      "satellite": 8688,
      "tte": 8689,
      "treasury": 8690,
      "uations": 8691,
      "yama": 8692,
      "inations": 8693,
      "injury": 8694,
      "errill": 8695,
      "rell": 8696,
      "refund": 8697,
      "repay": 8698,
      "reopen": 8699,
      "recycl": 8700,
      "theid": 8701,
      "atures": 8702,
      "stro": 8703,
      "stall": 8704,
      "itures": 8705,
      "itched": 8706,
      "toms": 8707,
      "ller": 8708,
      "island": 8709,
      "oms": 8710,
      "seize": 8711,
      "idman": 8712,
      "idency": 8713,
      "leasing": 8714,
      "unconstitutional": 8715,
      "accompan": 8716,
      "forth": 8717,
      "illi": 8718,
      "fie": 8719,
      "fiber": 8720,
      "cha": 8721,
      "chose": 8722,
      "beth": 8723,
      "loved": 8724,
      "perce": 8725,
      "tri": 8726,
      "unde": 8727,
      "cement": 8728,
      "shi": 8729,
      "shield": 8730,
      "abol": 8731,
      "resur": 8732,
      "modore": 8733,
      "frau": 8734,
      "fruit": 8735,
      "Income": 8736,
      "manner": 8737,
      "outing": 8738,
      "haun": 8739,
      "soaring": 8740,
      "essional": 8741,
      "dump": 8742,
      "emy": 8743,
      "estro": 8744,
      "elines": 8745,
      "bugs": 8746,
      "Thr": 8747,
      "kee": 8748,
      "inef": 8749,
      "Comp": 8750,
      "Comprehensive": 8751,
      "Commodore": 8752,
      "crunch": 8753,
      "disagree": 8754,
      "discontinued": 8755,
      "disobed": 8756,
      "ignore": 8757,
      "lows": 8758,
      "somewhere": 8759,
      "compat": 8760,
      "conting": 8761,
      "contained": 8762,
      "tenure": 8763,
      "tension": 8764,
      "deciding": 8765,
      "efully": 8766,
      "rett": 8767,
      "anymore": 8768,
      "clause": 8769,
      "msley": 8770,
      "Whatever": 8771,
      "element": 8772,
      "drain": 8773,
      "drivers": 8774,
      "Unless": 8775,
      "Unfortunately": 8776,
      "execution": 8777,
      "temper": 8778,
      "Bogart": 8779,
      "phones": 8780,
      "Exter": 8781,
      "therefore": 8782,
      "arrived": 8783,
      "serves": 8784,
      "longed": 8785,
      "Consolid": 8786,
      "Anderson": 8787,
      "incest": 8788,
      "guys": 8789,
      "Roth": 8790,
      "Roche": 8791,
      "Coll": 8792,
      "steam": 8793,
      "rises": 8794,
      "equally": 8795,
      "signing": 8796,
      "farms": 8797,
      "publications": 8798,
      "summit": 8799,
      "promising": 8800,
      "returning": 8801,
      "atories": 8802,
      "Sansui": 8803,
      "unicipals": 8804,
      "engines": 8805,
      "autom": 8806,
      "McDuf": 8807,
      "wheel": 8808,
      "Seidman": 8809,
      "foundation": 8810,
      "indicator": 8811,
      "judicial": 8812,
      "restated": 8813,
      "reaches": 8814,
      "Protect": 8815,
      "failing": 8816,
      "keeps": 8817,
      "Dozen": 8818,
      "swing": 8819,
      "switched": 8820,
      "MiniScribe": 8821,
      "Minpeco": 8822,
      "Investor": 8823,
      "postpon": 8824,
      "Guzman": 8825,
      "designs": 8826,
      "potato": 8827,
      "eighteenth": 8828,
      "weakened": 8829,
      "skills": 8830,
      "colon": 8831,
      "yourself": 8832,
      "sites": 8833,
      "breaks": 8834,
      "practical": 8835,
      "Hotel": 8836,
      "maintaining": 8837,
      "misleading": 8838,
      "improvements": 8839,
      "Indian": 8840,
      "emerge": 8841,
      "superior": 8842,
      "combat": 8843,
      "preference": 8844,
      "targeting": 8845,
      "classic": 8846,
      "altered": 8847,
      "Mitsui": 8848,
      "quotes": 8849,
      "staffers": 8850,
      "fastest": 8851,
      "Schwar": 8852,
      "Early": 8853,
      "aints": 8854,
      "congressman": 8855,
      "specifically": 8856,
      "dealership": 8857,
      "underwriting": 8858,
      "avoided": 8859,
      "climb": 8860,
      "Notes": 8861,
      "Dataproducts": 8862,
      "Build": 8863,
      "offsetting": 8864,
      "regardless": 8865,
      "influential": 8866,
      "Greenwich": 8867,
      "Middle": 8868,
      "territory": 8869,
      "eliminating": 8870,
      "socialism": 8871,
      "smoking": 8872,
      "suffering": 8873,
      "appealed": 8874,
      "hotels": 8875,
      "recognition": 8876,
      "sounds": 8877,
      "bias": 8878,
      "pursuing": 8879,
      "Equity": 8880,
      "bushel": 8881,
      "pictures": 8882,
      "aspect": 8883,
      "Overall": 8884,
      "Recently": 8885,
      "Everyone": 8886,
      "crops": 8887,
      "ranks": 8888,
      "Harry": 8889,
      "inches": 8890,
      "animals": 8891,
      "historical": 8892,
      "atinum": 8893,
      "scenes": 8894,
      "rebounded": 8895,
      "lobbying": 8896,
      "signaled": 8897,
      "arrangements": 8898,
      "Helmsley": 8899,
      "asserted": 8900,
      "physical": 8901,
      "obviously": 8902,
      "Specialized": 8903,
      "categories": 8904,
      "entrepreneurs": 8905,
      "displays": 8906,
      "extension": 8907,
      "Liber": 8908,
      "protesters": 8909,
      "Gillett": 8910,
      "granted": 8911,
      "Memories": 8912,
      "trimmed": 8913,
      "attendants": 8914,
      "conclusion": 8915,
      "Circuit": 8916,
      "Holiday": 8917,
      "tuition": 8918,
      "sponsor": 8919,
      "occasionally": 8920,
      "Microsoft": 8921,
      "solely": 8922,
      "architecture": 8923,
      "conversations": 8924,
      "accurate": 8925,
      "preparing": 8926,
      "Ashland": 8927,
      "knocked": 8928,
      "Cabrera": 8929,
      "bourbon": 8930,
      "components": 8931,
      "Leader": 8932,
      "Dorrance": 8933,
      "agricultural": 8934,
      "Hawai": 8935,
      "arranged": 8936,
      "Typical": 8937,
      "ambitious": 8938,
      "Advanced": 8939,
      "Azoff": 8940,
      "Hearst": 8941,
      "Springs": 8942,
      "Safety": 8943,
      "arrested": 8944,
      "defaults": 8945,
      "jewelry": 8946,
      "fundamentals": 8947,
      "prominent": 8948,
      "missile": 8949,
      "Nashua": 8950,
      "random": 8951,
      "Beverly": 8952,
      "Nevada": 8953,
      "intervention": 8954,
      "Toshiba": 8955,
      "corruption": 8956,
      "Dentsu": 8957,
      "Mancuso": 8958,
      "temblor": 8959,
      "College": 8960,
      "Magazine": 8961,
      "Affairs": 8962,
      "Zurich": 8963,
      "maneuver": 8964,
      "Hoffman": 8965,
      "cumulative": 8966,
      "excellent": 8967,
      "apartheid": 8968,
      "Temple": 8969,
      "afraid": 8970,
      "fraudu": 8971,
      "disobedience": 8972,
      "McDuffie": 8973,
      "postponed": 8974,
      "0s": 8975,
      "Ax": 8976,
      "Better": 8977,
      "Cine": 8978,
      "Cru": 8979,
      "CALL": 8980,
      "Creek": 8981,
      "Ding": 8982,
      "Div": 8983,
      "Dep": 8984,
      "Dick": 8985,
      "Fitz": 8986,
      "Get": 8987,
      "Gau": 8988,
      "Gra": 8989,
      "Gamble": 8990,
      "Having": 8991,
      "Herald": 8992,
      "Jon": 8993,
      "NO": 8994,
      "Nug": 8995,
      "Naz": 8996,
      "Norton": 8997,
      "OU": 8998,
      "Pret": 8999,
      "Patt": 9000,
      "Pioneer": 9001,
      "Ra": 9002,
      "Sass": 9003,
      "TH": 9004,
      "Tem": 9005,
      "Wach": 9006,
      "ah": 9007,
      "averaged": 9008,
      "bred": 9009,
      "bury": 9010,
      "cab": 9011,
      "cter": 9012,
      "cush": 9013,
      "dipped": 9014,
      "ez": 9015,
      "east": 9016,
      "fest": 9017,
      "fish": 9018,
      "fishing": 9019,
      "gon": 9020,
      "gence": 9021,
      "glit": 9022,
      "iance": 9023,
      "john": 9024,
      "knight": 9025,
      "lays": 9026,
      "lung": 9027,
      "nad": 9028,
      "ots": 9029,
      "otron": 9030,
      "py": 9031,
      "pal": 9032,
      "pall": 9033,
      "pills": 9034,
      "river": 9035,
      "sour": 9036,
      "sme": 9037,
      "soften": 9038,
      "score": 9039,
      "tz": 9040,
      "tall": 9041,
      "tanks": 9042,
      "uate": 9043,
      "uine": 9044,
      "vacc": 9045,
      "wed": 9046,
      "wis": 9047,
      "wick": 9048,
      "wreck": 9049,
      "xide": 9050,
      "ya": 9051,
      "insiders": 9052,
      "tho": 9053,
      "thal": 9054,
      "erup": 9055,
      "erod": 9056,
      "reap": 9057,
      "recall": 9058,
      "reactions": 9059,
      "resem": 9060,
      "removing": 9061,
      "enab": 9062,
      "orer": 9063,
      "orrect": 9064,
      "stal": 9065,
      "stiff": 9066,
      "edia": 9067,
      "ality": 9068,
      "itarian": 9069,
      "oust": 9070,
      "entities": 9071,
      "isa": 9072,
      "isms": 9073,
      "omitted": 9074,
      "icom": 9075,
      "sele": 9076,
      "root": 9077,
      "rook": 9078,
      "rolet": 9079,
      "rolls": 9080,
      "igg": 9081,
      "igy": 9082,
      "unra": 9083,
      "unsuccessful": 9084,
      "unspecified": 9085,
      "unprecedent": 9086,
      "acing": 9087,
      "acles": 9088,
      "cht": 9089,
      "chamber": 9090,
      "urge": 9091,
      "comed": 9092,
      "beach": 9093,
      "beef": 9094,
      "immin": 9095,
      "considers": 9096,
      "prolonged": 9097,
      "trick": 9098,
      "amic": 9099,
      "amford": 9100,
      "cease": 9101,
      "resorts": 9102,
      "defe": 9103,
      "mole": 9104,
      "Independent": 9105,
      "withdrew": 9106,
      "geo": 9107,
      "strain": 9108,
      "strapped": 9109,
      "uss": 9110,
      "usch": 9111,
      "astrop": 9112,
      "cker": 9113,
      "code": 9114,
      "auth": 9115,
      "marketed": 9116,
      "shared": 9117,
      "ups": 9118,
      "grab": 9119,
      "ongoing": 9120,
      "fool": 9121,
      "Thur": 9122,
      "Through": 9123,
      "presidency": 9124,
      "inclined": 9125,
      "incorrect": 9126,
      "ords": 9127,
      "noticed": 9128,
      "craz": 9129,
      "discre": 9130,
      "compre": 9131,
      "compare": 9132,
      "chants": 9133,
      "boiler": 9134,
      "retre": 9135,
      "suring": 9136,
      "surrender": 9137,
      "ilever": 9138,
      "ailing": 9139,
      "clar": 9140,
      "bright": 9141,
      "brush": 9142,
      "Stamford": 9143,
      "rows": 9144,
      "issuers": 9145,
      "subjects": 9146,
      "substance": 9147,
      "dry": 9148,
      "Unilever": 9149,
      "cedes": 9150,
      "fluct": 9151,
      "Deutsche": 9152,
      "justice": 9153,
      "Read": 9154,
      "Boy": 9155,
      "Excluding": 9156,
      "Asked": 9157,
      "Coniston": 9158,
      "transplant": 9159,
      "brother": 9160,
      "empire": 9161,
      "spots": 9162,
      "computing": 9163,
      "defended": 9164,
      "Stoll": 9165,
      "hook": 9166,
      "Gramm": 9167,
      "memor": 9168,
      "choos": 9169,
      "socio": 9170,
      "Beat": 9171,
      "structured": 9172,
      "reduces": 9173,
      "suppress": 9174,
      "contracted": 9175,
      "llowing": 9176,
      "matically": 9177,
      "movements": 9178,
      "Levine": 9179,
      "Norman": 9180,
      "Norfolk": 9181,
      "studied": 9182,
      "oslov": 9183,
      "entials": 9184,
      "laid": 9185,
      "Mercedes": 9186,
      "claiming": 9187,
      "enging": 9188,
      "engage": 9189,
      "automatically": 9190,
      "Shevard": 9191,
      "Resol": 9192,
      "Reserves": 9193,
      "writes": 9194,
      "manufacture": 9195,
      "Geigy": 9196,
      "Proper": 9197,
      "Procter": 9198,
      "sterdam": 9199,
      "Amsterdam": 9200,
      "beneficial": 9201,
      "rupted": 9202,
      "glam": 9203,
      "Dole": 9204,
      "passing": 9205,
      "evil": 9206,
      "evident": 9207,
      "winners": 9208,
      "ika": 9209,
      "Order": 9210,
      "illeg": 9211,
      "ATES": 9212,
      "colony": 9213,
      "Richter": 9214,
      "Acad": 9215,
      "questioned": 9216,
      "hitting": 9217,
      "OND": 9218,
      "Club": 9219,
      "boosts": 9220,
      "neck": 9221,
      "publishers": 9222,
      "prosecution": 9223,
      "diab": 9224,
      "petition": 9225,
      "petrochemical": 9226,
      "Quant": 9227,
      "Quotron": 9228,
      "Otherwise": 9229,
      "filling": 9230,
      "reviewing": 9231,
      "requests": 9232,
      "printed": 9233,
      "Harold": 9234,
      "tougher": 9235,
      "Buff": 9236,
      "Midland": 9237,
      "challenging": 9238,
      "Activity": 9239,
      "turb": 9240,
      "socialist": 9241,
      "commissioner": 9242,
      "narrowed": 9243,
      "repairs": 9244,
      "disputes": 9245,
      "Macmill": 9246,
[...]
